{
  "version": "1.0",
  "truncation": null,
  "padding": null,
  "added_tokens": [
    {
      "id": 0,
      "content": "<|endoftext|>",
      "single_word": false,
      "lstrip": false,
      "rstrip": false,
      "normalized": false,
      "special": true
    },
    {
      "id": 1,
      "content": "<|im_start|>",
      "single_word": false,
      "lstrip": false,
      "rstrip": false,
      "normalized": false,
      "special": true
    },
    {
      "id": 2,
      "content": "<|im_end|>",
      "single_word": false,
      "lstrip": false,
      "rstrip": false,
      "normalized": false,
      "special": true
    },
    {
      "id": 3,
      "content": "<|object_ref_start|>",
      "single_word": false,
      "lstrip": false,
      "rstrip": false,
      "normalized": false,
      "special": true
    },
    {
      "id": 4,
      "content": "<|object_ref_end|>",
      "single_word": false,
      "lstrip": false,
      "rstrip": false,
      "normalized": false,
      "special": true
    },
    {
      "id": 5,
      "content": "<|box_start|>",
      "single_word": false,
      "lstrip": false,
      "rstrip": false,
      "normalized": false,
      "special": true
    },
    {
      "id": 6,
      "content": "<|box_end|>",
      "single_word": false,
      "lstrip": false,
      "rstrip": false,
      "normalized": false,
      "special": true
    },
    {
      "id": 7,
      "content": "<|quad_start|>",
      "single_word": false,
      "lstrip": false,
      "rstrip": false,
      "normalized": false,
      "special": true
    },
    {
      "id": 8,
      "content": "<|quad_end|>",
      "single_word": false,
      "lstrip": false,
      "rstrip": false,
      "normalized": false,
      "special": true
    },
    {
      "id": 9,
      "content": "<|vision_start|>",
      "single_word": false,
      "lstrip": false,
      "rstrip": false,
      "normalized": false,
      "special": true
    },
    {
      "id": 10,
      "content": "<|vision_end|>",
      "single_word": false,
      "lstrip": false,
      "rstrip": false,
      "normalized": false,
      "special": true
    },
    {
      "id": 11,
      "content": "<|vision_pad|>",
      "single_word": false,
      "lstrip": false,
      "rstrip": false,
      "normalized": false,
      "special": true
    },
    {
      "id": 12,
      "content": "<|image_pad|>",
      "single_word": false,
      "lstrip": false,
      "rstrip": false,
      "normalized": false,
      "special": true
    },
    {
      "id": 13,
      "content": "<|video_pad|>",
      "single_word": false,
      "lstrip": false,
      "rstrip": false,
      "normalized": false,
      "special": true
    },
    {
      "id": 14,
      "content": "<|audio_start|>",
      "single_word": false,
      "lstrip": false,
      "rstrip": false,
      "normalized": false,
      "special": true
    },
    {
      "id": 15,
      "content": "<|audio_end|>",
      "single_word": false,
      "lstrip": false,
      "rstrip": false,
      "normalized": false,
      "special": true
    },
    {
      "id": 16,
      "content": "<|audio_pad|>",
      "single_word": false,
      "lstrip": false,
      "rstrip": false,
      "normalized": false,
      "special": true
    },
    {
      "id": 17,
      "content": "<tts_pad>",
      "single_word": false,
      "lstrip": false,
      "rstrip": false,
      "normalized": false,
      "special": true
    },
    {
      "id": 18,
      "content": "<tts_text_bos>",
      "single_word": false,
      "lstrip": false,
      "rstrip": false,
      "normalized": false,
      "special": true
    },
    {
      "id": 19,
      "content": "<tts_text_eod>",
      "single_word": false,
      "lstrip": false,
      "rstrip": false,
      "normalized": false,
      "special": true
    },
    {
      "id": 20,
      "content": "<tts_text_bos_single>",
      "single_word": false,
      "lstrip": false,
      "rstrip": false,
      "normalized": false,
      "special": true
    },
    {
      "id": 21,
      "content": "<tool_call>",
      "single_word": false,
      "lstrip": false,
      "rstrip": false,
      "normalized": false,
      "special": false
    },
    {
      "id": 22,
      "content": "</tool_call>",
      "single_word": false,
      "lstrip": false,
      "rstrip": false,
      "normalized": false,
      "special": false
    },
    {
      "id": 23,
      "content": "<tool_response>",
      "single_word": false,
      "lstrip": false,
      "rstrip": false,
      "normalized": false,
      "special": false
    },
    {
      "id": 24,
      "content": "</tool_response>",
      "single_word": false,
      "lstrip": false,
      "rstrip": false,
      "normalized": false,
      "special": false
    },
    {
      "id": 25,
      "content": "<think>",
      "single_word": false,
      "lstrip": false,
      "rstrip": false,
      "normalized": false,
      "special": false
    },
    {
      "id": 26,
      "content": "</think>",
      "single_word": false,
      "lstrip": false,
      "rstrip": false,
      "normalized": false,
      "special": false
    },
    {
      "id": 27,
      "content": "<buffer1>",
      "single_word": false,
      "lstrip": false,
      "rstrip": false,
      "normalized": false,
      "special": false
    },
    {
      "id": 28,
      "content": "<buffer2>",
      "single_word": false,
      "lstrip": false,
      "rstrip": false,
      "normalized": false,
      "special": false
    },
    {
      "id": 29,
      "content": "<buffer3>",
      "single_word": false,
      "lstrip": false,
      "rstrip": false,
      "normalized": false,
      "special": false
    },
    {
      "id": 30,
      "content": "<buffer4>",
      "single_word": false,
      "lstrip": false,
      "rstrip": false,
      "normalized": false,
      "special": false
    },
    {
      "id": 31,
      "content": "<buffer5>",
      "single_word": false,
      "lstrip": false,
      "rstrip": false,
      "normalized": false,
      "special": false
    },
    {
      "id": 32,
      "content": "<buffer6>",
      "single_word": false,
      "lstrip": false,
      "rstrip": false,
      "normalized": false,
      "special": false
    },
    {
      "id": 33,
      "content": "<buffer7>",
      "single_word": false,
      "lstrip": false,
      "rstrip": false,
      "normalized": false,
      "special": false
    },
    {
      "id": 34,
      "content": "<buffer8>",
      "single_word": false,
      "lstrip": false,
      "rstrip": false,
      "normalized": false,
      "special": false
    },
    {
      "id": 35,
      "content": "<buffer9>",
      "single_word": false,
      "lstrip": false,
      "rstrip": false,
      "normalized": false,
      "special": false
    }
  ],
  "normalizer": null,
  "pre_tokenizer": {
    "type": "ByteLevel",
    "add_prefix_space": false,
    "trim_offsets": true,
    "use_regex": true
  },
  "post_processor": null,
  "decoder": {
    "type": "ByteLevel",
    "add_prefix_space": true,
    "trim_offsets": true,
    "use_regex": true
  },
  "model": {
    "type": "BPE",
    "dropout": null,
    "unk_token": null,
    "continuing_subword_prefix": null,
    "end_of_word_suffix": null,
    "fuse_unk": false,
    "byte_fallback": false,
    "ignore_merges": false,
    "vocab": {
      "<|endoftext|>": 0,
      "<|im_start|>": 1,
      "<|im_end|>": 2,
      "<|object_ref_start|>": 3,
      "<|object_ref_end|>": 4,
      "<|box_start|>": 5,
      "<|box_end|>": 6,
      "<|quad_start|>": 7,
      "<|quad_end|>": 8,
      "<|vision_start|>": 9,
      "<|vision_end|>": 10,
      "<|vision_pad|>": 11,
      "<|image_pad|>": 12,
      "<|video_pad|>": 13,
      "<|audio_start|>": 14,
      "<|audio_end|>": 15,
      "<|audio_pad|>": 16,
      "<tts_pad>": 17,
      "<tts_text_bos>": 18,
      "<tts_text_eod>": 19,
      "<tts_text_bos_single>": 20,
      "<tool_call>": 21,
      "</tool_call>": 22,
      "<tool_response>": 23,
      "</tool_response>": 24,
      "<think>": 25,
      "</think>": 26,
      "<buffer1>": 27,
      "<buffer2>": 28,
      "<buffer3>": 29,
      "<buffer4>": 30,
      "<buffer5>": 31,
      "<buffer6>": 32,
      "<buffer7>": 33,
      "<buffer8>": 34,
      "<buffer9>": 35,
      "!": 36,
      "\"": 37,
      "#": 38,
      "$": 39,
      "%": 40,
      "&": 41,
      "'": 42,
      "(": 43,
      ")": 44,
      "*": 45,
      "+": 46,
      ",": 47,
      "-": 48,
      ".": 49,
      "/": 50,
      "0": 51,
      "1": 52,
      "2": 53,
      "3": 54,
      "4": 55,
      "5": 56,
      "6": 57,
      "7": 58,
      "8": 59,
      "9": 60,
      ":": 61,
      ";": 62,
      "<": 63,
      "=": 64,
      ">": 65,
      "?": 66,
      "@": 67,
      "A": 68,
      "B": 69,
      "C": 70,
      "D": 71,
      "E": 72,
      "F": 73,
      "G": 74,
      "H": 75,
      "I": 76,
      "J": 77,
      "K": 78,
      "L": 79,
      "M": 80,
      "N": 81,
      "O": 82,
      "P": 83,
      "Q": 84,
      "R": 85,
      "S": 86,
      "T": 87,
      "U": 88,
      "V": 89,
      "W": 90,
      "X": 91,
      "Y": 92,
      "Z": 93,
      "[": 94,
      "\\": 95,
      "]": 96,
      "^": 97,
      "_": 98,
      "`": 99,
      "a": 100,
      "b": 101,
      "c": 102,
      "d": 103,
      "e": 104,
      "f": 105,
      "g": 106,
      "h": 107,
      "i": 108,
      "j": 109,
      "k": 110,
      "l": 111,
      "m": 112,
      "n": 113,
      "o": 114,
      "p": 115,
      "q": 116,
      "r": 117,
      "s": 118,
      "t": 119,
      "u": 120,
      "v": 121,
      "w": 122,
      "x": 123,
      "y": 124,
      "z": 125,
      "{": 126,
      "|": 127,
      "}": 128,
      "~": 129,
      "¡": 130,
      "¢": 131,
      "£": 132,
      "¤": 133,
      "¥": 134,
      "¦": 135,
      "§": 136,
      "¨": 137,
      "©": 138,
      "ª": 139,
      "«": 140,
      "¬": 141,
      "®": 142,
      "¯": 143,
      "°": 144,
      "±": 145,
      "²": 146,
      "³": 147,
      "´": 148,
      "µ": 149,
      "¶": 150,
      "·": 151,
      "¸": 152,
      "¹": 153,
      "º": 154,
      "»": 155,
      "¼": 156,
      "½": 157,
      "¾": 158,
      "¿": 159,
      "À": 160,
      "Á": 161,
      "Â": 162,
      "Ã": 163,
      "Ä": 164,
      "Å": 165,
      "Æ": 166,
      "Ç": 167,
      "È": 168,
      "É": 169,
      "Ê": 170,
      "Ë": 171,
      "Ì": 172,
      "Í": 173,
      "Î": 174,
      "Ï": 175,
      "Ð": 176,
      "Ñ": 177,
      "Ò": 178,
      "Ó": 179,
      "Ô": 180,
      "Õ": 181,
      "Ö": 182,
      "×": 183,
      "Ø": 184,
      "Ù": 185,
      "Ú": 186,
      "Û": 187,
      "Ü": 188,
      "Ý": 189,
      "Þ": 190,
      "ß": 191,
      "à": 192,
      "á": 193,
      "â": 194,
      "ã": 195,
      "ä": 196,
      "å": 197,
      "æ": 198,
      "ç": 199,
      "è": 200,
      "é": 201,
      "ê": 202,
      "ë": 203,
      "ì": 204,
      "í": 205,
      "î": 206,
      "ï": 207,
      "ð": 208,
      "ñ": 209,
      "ò": 210,
      "ó": 211,
      "ô": 212,
      "õ": 213,
      "ö": 214,
      "÷": 215,
      "ø": 216,
      "ù": 217,
      "ú": 218,
      "û": 219,
      "ü": 220,
      "ý": 221,
      "þ": 222,
      "ÿ": 223,
      "Ā": 224,
      "ā": 225,
      "Ă": 226,
      "ă": 227,
      "Ą": 228,
      "ą": 229,
      "Ć": 230,
      "ć": 231,
      "Ĉ": 232,
      "ĉ": 233,
      "Ċ": 234,
      "ċ": 235,
      "Č": 236,
      "č": 237,
      "Ď": 238,
      "ď": 239,
      "Đ": 240,
      "đ": 241,
      "Ē": 242,
      "ē": 243,
      "Ĕ": 244,
      "ĕ": 245,
      "Ė": 246,
      "ė": 247,
      "Ę": 248,
      "ę": 249,
      "Ě": 250,
      "ě": 251,
      "Ĝ": 252,
      "ĝ": 253,
      "Ğ": 254,
      "ğ": 255,
      "Ġ": 256,
      "ġ": 257,
      "Ģ": 258,
      "ģ": 259,
      "Ĥ": 260,
      "ĥ": 261,
      "Ħ": 262,
      "ħ": 263,
      "Ĩ": 264,
      "ĩ": 265,
      "Ī": 266,
      "ī": 267,
      "Ĭ": 268,
      "ĭ": 269,
      "Į": 270,
      "į": 271,
      "İ": 272,
      "ı": 273,
      "Ĳ": 274,
      "ĳ": 275,
      "Ĵ": 276,
      "ĵ": 277,
      "Ķ": 278,
      "ķ": 279,
      "ĸ": 280,
      "Ĺ": 281,
      "ĺ": 282,
      "Ļ": 283,
      "ļ": 284,
      "Ľ": 285,
      "ľ": 286,
      "Ŀ": 287,
      "ŀ": 288,
      "Ł": 289,
      "ł": 290,
      "Ń": 291,
      "ãĢ": 292,
      "en": 293,
      "ï¼": 294,
      "è¯": 295,
      "Ġt": 296,
      "ä¸": 297,
      "ãĢĤ": 298,
      "in": 299,
      "ken": 300,
      "oken": 301,
      "åĪ": 302,
      "ï¼Į": 303,
      "er": 304,
      "Ġtoken": 305,
      "çļ": 306,
      "çļĦ": 307,
      "te": 308,
      "æĪ": 309,
      "æĸ": 310,
      "ç»": 311,
      "an": 312,
      "re": 313,
      "ä»": 314,
      "åı": 315,
      "è®": 316,
      "ãĢģ": 317,
      "iz": 318,
      "th": 319,
      "ä¹": 320,
      "æĺ": 321,
      "æł": 322,
      "izer": 323,
      "xt": 324,
      "åŃ": 325,
      "çĶ": 326,
      "Ġs": 327,
      "įå": 328,
      "åĪĨ": 329,
      "æĪĲ": 330,
      "æĸĩ": 331,
      "çĶ¨": 332,
      "¼ļ": 333,
      "ä¼ļ": 334,
      "å®": 335,
      "åĴ": 336,
      "æľ": 337,
      "çĽ": 338,
      "Ġ/": 339,
      "Ńç»": 340,
      "è¯Ń": 341,
      "åĪĩ": 342,
      "Ġtokenizer": 343,
      "è®Ńç»": 344,
      "æĺ¯": 345,
      "åĴĮ": 346,
      "è®Ńç»ĥ": 347,
      "la": 348,
      "åħ": 349,
      "åľ": 350,
      "åŀ": 351,
      "è¦": 352,
      "Ġw": 353,
      "ï¼ļ": 354,
      "ink": 355,
      "think": 356,
      "æłĩ": 357,
      "åŀĭ": 358,
      "BP": 359,
      "``": 360,
      "el": 361,
      "ev": 362,
      "or": 363,
      "yte": 364,
      "¡¨": 365,
      "¡åŀĭ": 366,
      "¨¡åŀĭ": 367,
      "¸¸": 368,
      "½ł": 369,
      "ä½ł": 370,
      "å·": 371,
      "å¸¸": 372,
      "æķ": 373,
      "æ¨¡åŀĭ": 374,
      "è§": 375,
      "è¶": 376,
      "è¡¨": 377,
      "ĠçļĦ": 378,
      "ĢĿ": 379,
      "Ģä¹": 380,
      "è¯į": 381,
      "ä¸Ģ": 382,
      "text": 383,
      "æĸĻ": 384,
      "ä»Ģä¹": 385,
      "åŃ¦": 386,
      "æĸĩæľ": 387,
      "è¯ŃæĸĻ": 388,
      "BPE": 389,
      "ä»Ģä¹Ī": 390,
      "æĸĩæľ¬": 391,
      ">ãĢģ": 392,
      "are": 393,
      "ext": 394,
      "ge": 395,
      "im": 396,
      "is": 397,
      "le": 398,
      "ol": 399,
      "tr": 400,
      "¥åħ": 401,
      "¬¦": 402,
      "¹æ": 403,
      "å¤": 404,
      "å¹": 405,
      "å½": 406,
      "å¾": 407,
      "åĲ": 408,
      "æĬ": 409,
      "æĢĿ": 410,
      "ç®": 411,
      "çī": 412,
      "ç¬¦": 413,
      "Ġb": 414,
      "Ġc": 415,
      "Ġm": 416,
      "Ġre": 417,
      "ĨçĽ": 418,
      "Ļ¨": 419,
      "ï¼Ł": 420,
      "è¯·": 421,
      "è¯įå": 422,
      "Ġtext": 423,
      "ä¸ª": 424,
      "ä¸Ń": 425,
      "æĪĳ": 426,
      "and": 427,
      "åı¥": 428,
      "ä¹ł": 429,
      "åĪĨè¯įå": 430,
      "åĪĩåĪĨ": 431,
      "åľ¨": 432,
      "è¦ĨçĽ": 433,
      "Ġwor": 434,
      "å·¥åħ": 435,
      "è¯įè¡¨": 436,
      "ä¸Ģä¸ª": 437,
      "åŃ¦ä¹ł": 438,
      ">ãĢģ<": 439,
      "æĬĬ": 440,
      "åĪĨè¯įåĻ¨": 441,
      "è¦ĨçĽĸ": 442,
      "å·¥åħ·": 443,
      "Byte": 444,
      "En": 445,
      "Hel": 446,
      "Lev": 447,
      "Min": 448,
      "ar": 449,
      "as": 450,
      "bol": 451,
      "de": 452,
      "gl": 453,
      "hen": 454,
      "ic": 455,
      "ld": 456,
      "lo": 457,
      "len": 458,
      "mbol": 459,
      "on": 460,
      "qu": 461,
      "rare": 462,
      "sla": 463,
      "tar": 464,
      "yth": 465,
      "ymbol": 466,
      "|>ãĢģ<": 467,
      "¢æĪĲ": 468,
      "£åľ¨": 469,
      "¤º": 470,
      "¥½": 471,
      "¥è": 472,
      "¦Ĥ": 473,
      "§è¯Ń": 474,
      "¨Ģ": 475,
      "®Ĭ": 476,
      "®æłĩ": 477,
      "¯ä»": 478,
      "°ĥ": 479,
      "°ı": 480,
      "±æĸĩ": 481,
      "´å®": 482,
      "¹æĺ": 483,
      "º¦": 484,
      "ºæ": 485,
      "ºİ": 486,
      "»è¯": 487,
      "½ä¼ļ": 488,
      "¾ĭ": 489,
      "¿»è¯": 490,
      "äºİ": 491,
      "ä¾ĭ": 492,
      "åĨ": 493,
      "åĩ": 494,
      "åĮ": 495,
      "å¥½": 496,
      "å¦Ĥ": 497,
      "å°ı": 498,
      "æĽ": 499,
      "æĿ": 500,
      "æŀ": 501,
      "æŃ": 502,
      "çİ": 503,
      "çķ": 504,
      "çŁ": 505,
      "ç¤º": 506,
      "ç¿»è¯": 507,
      "è¾": 508,
      "èĢ": 509,
      "èĭ": 510,
      "è¨Ģ": 511,
      "éĥ": 512,
      "éĹ": 513,
      "Ġ<": 514,
      "Ġe": 515,
      "Ġh": 516,
      "ĠĠ": 517,
      "Ġin": 518,
      "Ġä¼ļ": 519,
      "Ġæĺ¯": 520,
      "ĠåĴĮ": 521,
      "Ġla": 522,
      "Ġev": 523,
      "ĠBPE": 524,
      "Ġand": 525,
      "Ġrare": 526,
      "ĳæĪĲ": 527,
      "Ļ¯": 528,
      "ent": 529,
      "è¯Ŀ": 530,
      "Ġtr": 531,
      "ä¸º": 532,
      "ing": 533,
      "okenizer": 534,
      "Ġtokens": 535,
      "çļĦå°ı": 536,
      "ted": 537,
      "ansla": 538,
      "res": 539,
      "åı·": 540,
      "åı¯ä»": 541,
      "è®°": 542,
      "åŃĹ": 543,
      "Ġstr": 544,
      "Ġsymbol": 545,
      "įåĲ": 546,
      "çĶ¨äºİ": 547,
      "å®ļ": 548,
      "æľĢ": 549,
      "çĽ®æłĩ": 550,
      "åĪĩæĪĲ": 551,
      "åľºæ": 552,
      "è¦ģ": 553,
      "æłĩè®°": 554,
      "```": 555,
      "ä½łå¥½": 556,
      "å¸¸è§": 557,
      "æķ°": 558,
      "è¶³": 559,
      "è¶Ĭ": 560,
      "ä»Ģä¹Īæĺ¯": 561,
      "ish": 562,
      "¹æ®Ĭ": 563,
      "å¤§è¯Ń": 564,
      "å¹¶": 565,
      "å½¢æĪĲ": 566,
      "å¾Ĺ": 567,
      "åĲİ": 568,
      "æĢĿèĢ": 569,
      "ç®Ģ": 570,
      "çī¹æ®Ĭ": 571,
      "ç¬¦åı·": 572,
      "Ġbyte": 573,
      "Ġcan": 574,
      "åı¥è¯Ŀ": 575,
      "Ġworld": 576,
      "åĪĨè¯įåĻ¨è®Ńç»ĥ": 577,
      "ByteLev": 578,
      "Engl": 579,
      "Hello": 580,
      "tart": 581,
      "ython": 582,
      "°ĥçĶ¨": 583,
      "´å®¹æĺ": 584,
      "æĽ´å®¹æĺ": 585,
      "æŃ£åľ¨": 586,
      "çİĩ": 587,
      "çķĮ": 588,
      "çŁŃ": 589,
      "ç¿»è¯ĳæĪĲ": 590,
      "èĭ±æĸĩ": 591,
      "è¨Ģæ¨¡åŀĭ": 592,
      "éĥ½ä¼ļ": 593,
      "éĹ´": 594,
      "Ġint": 595,
      "Ġlar": 596,
      "çĽ®æłĩåľºæ": 597,
      "å¸¸è§ģ": 598,
      "å¤§è¯Ńè¨Ģæ¨¡åŀĭ": 599,
      "æĢĿèĢĥ": 600,
      "ByteLevel": 601,
      "English": 602,
      "æĽ´å®¹æĺĵ": 603,
      "çĽ®æłĩåľºæĻ¯": 604,
      "\":": 605,
      "\"}": 606,
      "->": 607,
      "00": 608,
      "12": 609,
      "400": 610,
      "</": 611,
      ">ï¼Į": 612,
      "AI": 613,
      "Fre": 614,
      "Ple": 615,
      "Python": 616,
      "To": 617,
      "Tokenizer": 618,
      "Un": 619,
      "at": 620,
      "ain": 621,
      "age": 622,
      "di": 623,
      "ed": 624,
      "ff": 625,
      "fr": 626,
      "gu": 627,
      "ger": 628,
      "gth": 629,
      "hy": 630,
      "id": 631,
      "ik": 632,
      "ix": 633,
      "iMin": 634,
      "ient": 635,
      "ires": 636,
      "ji": 637,
      "ly": 638,
      "lan": 639,
      "lik": 640,
      "mo": 641,
      "ns": 642,
      "om": 643,
      "ode": 644,
      "pla": 645,
      "pres": 646,
      "python": 647,
      "pat": 648,
      "rn": 649,
      "se": 650,
      "start": 651,
      "tu": 652,
      "ter": 653,
      "tokenizer": 654,
      "uff": 655,
      "ver": 656,
      "xpla": 657,
      "{\"": 658,
      "¡º": 659,
      "¡Ģ": 660,
      "¡åŃĹ": 661,
      "¢«": 662,
      "¢è": 663,
      "¢İ": 664,
      "¢ĳ": 665,
      "¢çļĦ": 666,
      "£çļĦå°ı": 667,
      "¤įåĲ": 668,
      "¥è§": 669,
      "¥åĪĩæĪĲ": 670,
      "§ĭ": 671,
      "§åĪ": 672,
      "¨³": 673,
      "©æ": 674,
      "©çİĩ": 675,
      "ªè®Ńç»ĥ": 676,
      "«ĺ": 677,
      "«ä¸Ń": 678,
      "¬æ": 679,
      "¬å¸¸": 680,
      "®µ": 681,
      "®è¯įè¡¨": 682,
      "¯Ł": 683,
      "¯è¾": 684,
      "°ä¸": 685,
      "±å": 686,
      "²é": 687,
      "²åĩ": 688,
      "³ķ": 689,
      "³æĺ¯": 690,
      "¶Ī": 691,
      "¶æłĩè®°": 692,
      "¸å": 693,
      "¸é": 694,
      "¹çļĦ": 695,
      "¹çķĮ": 696,
      "ºç": 697,
      "ºéĹ´": 698,
      "»çī": 699,
      "¼Ģ": 700,
      "¼Ķ": 701,
      "¼©çİĩ": 702,
      "½æķ°": 703,
      "½¬æ": 704,
      "¾ä¼ļ": 705,
      "¿å": 706,
      "¿ĥ": 707,
      "¿Ļ": 708,
      "ÎĶ": 709,
      "ÏĢ": 710,
      "âĢ": 711,
      "âĢĿ": 712,
      "åĬ": 713,
      "åİ": 714,
      "åĽ": 715,
      "åĿ": 716,
      "åŁ": 717,
      "å§ĭ": 718,
      "å¯Ł": 719,
      "å¼Ģ": 720,
      "æģ": 721,
      "æĥ": 722,
      "æİ": 723,
      "æ®µ": 724,
      "æ³ķ": 725,
      "æ¶Ī": 726,
      "æ¼Ķ": 727,
      "çĤ": 728,
      "çĲ": 729,
      "çľ": 730,
      "çŃ": 731,
      "çº¦": 732,
      "ç¢İ": 733,
      "ç¨³": 734,
      "ç¼©çİĩ": 735,
      "è°ĥçĶ¨": 736,
      "è¢«": 737,
      "è½¬æ": 738,
      "éĩ": 739,
      "éľ": 740,
      "éĿ": 741,
      "é¡º": 742,
      "é¢ĳ": 743,
      "é«ĺ": 744,
      "ĊĠĠ": 745,
      "Ġ6": 746,
      "Ġa": 747,
      "Ġä¹": 748,
      "Ġè®Ńç»ĥ": 749,
      "Ġor": 750,
      "Ġare": 751,
      "Ġis": 752,
      "Ġä¸Ń": 753,
      "ĠåŃ¦ä¹ł": 754,
      "ĠåĪĨè¯įåĻ¨": 755,
      "Ġå·¥åħ·": 756,
      "Ġlen": 757,
      "Ġåĩ": 758,
      "ĠæŃ£åľ¨": 759,
      "Ġéĥ½ä¼ļ": 760,
      "Ġå¤§è¯Ńè¨Ģæ¨¡åŀĭ": 761,
      "ĠByteLevel": 762,
      "ĠEnglish": 763,
      "Ġ->": 764,
      "ĠAI": 765,
      "ĠFre": 766,
      "ĠPython": 767,
      "ĠTo": 768,
      "ĠUn": 769,
      "Ġdi": 770,
      "Ġfr": 771,
      "Ġid": 772,
      "Ġlik": 773,
      "Ġpat": 774,
      "ĠÎĶ": 775,
      "ĠÏĢ": 776,
      "ĠåĬ": 777,
      "Ģè¦ģ": 778,
      "ģç®Ģ": 779,
      "Ĥ»çī": 780,
      "Ĥå¯Ł": 781,
      "ĥä»": 782,
      "ħåĪĨ": 783,
      "ħåĲ": 784,
      "Ĩè§": 785,
      "ĩªè®Ńç»ĥ": 786,
      "ĩæ®µ": 787,
      "Īå¹¶": 788,
      "Īç®Ģ": 789,
      "Īçİĩ": 790,
      "Īç¢İ": 791,
      "īĭ": 792,
      "ĭç»": 793,
      "ĭéĹ´": 794,
      "ĭç¼©çİĩ": 795,
      "ĭéĿ": 796,
      "ĮåĪĩåĪĨ": 797,
      "įåĪĩåĪĨ": 798,
      "įè¶³": 799,
      "įä»Ģä¹Īæĺ¯": 800,
      "į¢çļĦ": 801,
      "į®è¯įè¡¨": 802,
      "İåŁ": 803,
      "ıçļĦ": 804,
      "Ĳè¯į": 805,
      "ĵįåĪĩåĪĨ": 806,
      "ķ¿å": 807,
      "ĸå·¥åħ·": 808,
      "ĸçķĮ": 809,
      "Ĺæ³ķ": 810,
      "ĺå·": 811,
      "ĻåŃ¦": 812,
      "ĻæĪĳ": 813,
      "Ļä¸Ģä¸ª": 814,
      "ļæł": 815,
      "Ľŀ": 816,
      "ľè¯ŃæĸĻ": 817,
      "Łè®": 818,
      "Łå®": 819,
      "łä¸º": 820,
      "Ńæ¨¡åŀĭ": 821,
      "end": 822,
      "ented": 823,
      "ï¼Ľ": 824,
      "Ġthen": 825,
      "ä¸²é": 826,
      "ä¸ĭéĿ": 827,
      "ä¸įè¶³": 828,
      "ä¸ĸçķĮ": 829,
      "ind": 830,
      "inim": 831,
      "åĪ°ä¸": 832,
      "ery": 833,
      "erge": 834,
      "çļĦçĽ": 835,
      "çļĦåĪĨè¯įåĻ¨è®Ńç»ĥ": 836,
      "çļĦæİ": 837,
      "æĪĸå·¥åħ·": 838,
      "ç»ĻæĪĳ": 839,
      "ç»Łè®": 840,
      "ç»Ńæ¨¡åŀĭ": 841,
      "ä»ĭç»": 842,
      "ä»İåŁ": 843,
      "åıįå": 844,
      "åıĺå·": 845,
      "æł¹æ": 846,
      "æł¸å": 847,
      "åŃĲè¯į": 848,
      "Ġso": 849,
      "Ġstart": 850,
      "Ġsuff": 851,
      "įåĽŀ": 852,
      "çĶ¨ä¸Ģ": 853,
      "çĶ¨æĿ": 854,
      "çĶ¨åŃĲè¯į": 855,
      "ä¼ļæĽ´å®¹æĺĵ": 856,
      "å®ĥä»": 857,
      "åĪĩå¾Ĺ": 858,
      "åĴĮæłĩ": 859,
      "åĴĮç®": 860,
      "åĴĮåŃ¦ä¹ł": 861,
      "è®Ńç»ĥè¶Ĭ": 862,
      "åħħåĪĨ": 863,
      "åħĪç®Ģ": 864,
      "Ġwhen": 865,
      "Ġwhy": 866,
      "ä½łæĺ¯": 867,
      "ä½łåı¯ä»": 868,
      "å¸¸çĶ¨åŃĲè¯į": 869,
      "æķĪçİĩ": 870,
      "æķĻåŃ¦": 871,
      "æ¨¡åŀĭçº¦": 872,
      "è¡¨è¾": 873,
      "ĠçļĦè¯ŃæĸĻ": 874,
      "ĠçļĦè¯įè¡¨": 875,
      "ĠçļĦæł¸å": 876,
      "è¯ŃæĸĻä¸Ń": 877,
      "ä»Ģä¹Īè®Ńç»ĥ": 878,
      "æĸĩæľ¬åĴĮ": 879,
      "æĸĩæľ¬åĪĩåĪĨ": 880,
      "æĸĩæľ¬ä¼ļæĽ´å®¹æĺĵ": 881,
      "lean": 882,
      "ols": 883,
      "transla": 884,
      "å¤ļæł": 885,
      "å¹²åĩ": 886,
      "å½±å": 887,
      "å¾Īç¢İ": 888,
      "æĢĿæĥ": 889,
      "ç¬¦ä¸²é": 890,
      "Ġbe": 891,
      "Ġclean": 892,
      "Ġmix": 893,
      "Ġminim": 894,
      "Ġmerge": 895,
      "Ġrequ": 896,
      "Ġrepres": 897,
      "Ġretu": 898,
      "è¯·åĨ": 899,
      "è¯·çĶ¨ä¸Ģ": 900,
      "è¯·åħĪç®Ģ": 901,
      "æĪĳæŃ£åľ¨": 902,
      "andle": 903,
      "åľ¨æĸĩæľ¬åĴĮ": 904,
      "Ġword": 905,
      "ä¸Ģä¸ªåĮ": 906,
      "ä¸Ģä¸ªçĶ¨äºİ": 907,
      "åŃ¦ä¹łå¤§è¯Ńè¨Ģæ¨¡åŀĭ": 908,
      ">ãĢģ</": 909,
      "æĬĬä¸ĭéĿ": 910,
      "æĬĬæĸĩæľ¬åĪĩåĪĨ": 911,
      "è¦ĨçĽĸè¶Ĭ": 912,
      "è¦ĨçĽĸçĽ®æłĩåľºæĻ¯": 913,
      "è¦ĨçĽĸä¸įè¶³": 914,
      "MiniMin": 915,
      "ase": 916,
      "def": 917,
      "icient": 918,
      "icode": 919,
      "length": 920,
      "quent": 921,
      "|>ãĢģ<|": 922,
      "¥è°ĥçĶ¨": 923,
      "¥èĩªè®Ńç»ĥ": 924,
      "ä¾ĭå¦Ĥ": 925,
      "åĨįåĽŀ": 926,
      "åĮºéĹ´": 927,
      "å¦Ĥæŀ": 928,
      "æĿ¥èĩªè®Ńç»ĥ": 929,
      "æŀģç®Ģ": 930,
      "ç¤ºä¾ĭ": 931,
      "ç¤ºçļĦå°ı": 932,
      "Ġ<|": 933,
      "Ġemo": 934,
      "Ġexpla": 935,
      "Ġhas": 936,
      "Ġhandle": 937,
      "Ġä¼ļä»İåŁ": 938,
      "Ġä¼ļæł¹æ": 939,
      "Ġæĺ¯æĬĬæĸĩæľ¬åĪĩåĪĨ": 940,
      "ĠåĴĮç¬¦åı·": 941,
      "ĠåĴĮæ¨¡åŀĭçº¦": 942,
      "Ġeven": 943,
      "Ġevery": 944,
      "Ġtransla": 945,
      "Ġtrain": 946,
      "ä¸ºä»Ģä¹Īè®Ńç»ĥ": 947,
      "åı¯ä»¥åĪĩæĪĲ": 948,
      "åŃĹåĴĮæłĩ": 949,
      "Ġstring": 950,
      "Ġsymbols": 951,
      "įåĲĮåĪĩåĪĨ": 952,
      "çĶ¨äºİæłĩè®°": 953,
      "å®ļçļĦæİ": 954,
      "æľĢåĲİ": 955,
      "æľĢå¸¸è§ģ": 956,
      "åĪĩæĪĲæĽ´å®¹æĺĵ": 957,
      "è¦ģè¦ĨçĽĸçĽ®æłĩåľºæĻ¯": 958,
      "ä½łå¥½ä¸ĸçķĮ": 959,
      "æķ°åŃĹåĴĮæłĩ": 960,
      "è¶³éĩ": 961,
      "ä»Ģä¹Īæĺ¯çī¹æ®Ĭ": 962,
      "å¹¶åľ¨æĸĩæľ¬åĴĮ": 963,
      "å½¢æĪĲç¨³": 964,
      "å½¢æĪĲå¸¸çĶ¨åŃĲè¯į": 965,
      "å¾ĹåĪ°ä¸": 966,
      "åĲİç»Ńæ¨¡åŀĭ": 967,
      "ç¬¦åı·å¼Ģ": 968,
      "Ġbytes": 969,
      "åı¥è¯Ŀä»ĭç»": 970,
      "åı¥è¯ĿåĪĩæĪĲæĽ´å®¹æĺĵ": 971,
      "åĪĨè¯įåĻ¨è®Ńç»ĥéľ": 972,
      "çŁŃåı¥": 973,
      "çŁŃæĢĿèĢĥ": 974,
      "ç¿»è¯ĳæĪĲèĭ±æĸĩ": 975,
      "éĥ½ä¼ļåıĺå·": 976,
      "Ġinto": 977,
      "Ġlarge": 978,
      "Ġlarger": 979,
      "å¸¸è§ģè¡¨è¾": 980,
      "æĢĿèĢĥåĮºéĹ´": 981,
      "çĽ®æłĩåľºæĻ¯è¦ĨçĽĸè¶Ĭ": 982,
      "\":\"": 983,
      "123": 984,
      "Please": 985,
      "guage": 986,
      "language": 987,
      "terns": 988,
      "verse": 989,
      "¡Ģç¬¦åı·å¼Ģ": 990,
      "¡åŃĹç¬¦ä¸²é": 991,
      "¢è¿Ļ": 992,
      "£çļĦå°ıåĿ": 993,
      "¤įåĲĪå¹¶": 994,
      "¥è§Ĥå¯Ł": 995,
      "§åĪ¶æłĩè®°": 996,
      "©æīĭ": 997,
      "«ä¸Ńèĭ±æĸĩ": 998,
      "¬å¸¸çĶ¨äºİæłĩè®°": 999,
      "¯è¾¹çķĮ": 1000,
      "³æĺ¯ä»Ģä¹Ī": 1001,
      "¸éĤ»çī": 1002,
      "¹çļĦçŁŃåı¥": 1003,
      "ºç¡Ģç¬¦åı·å¼Ģ": 1004,
      "¾ä¼ļè¢«": 1005,
      "¿ĥæĢĿæĥ": 1006,
      "âĢľ": 1007,
      "åİĭç¼©çİĩ": 1008,
      "åĽłä¸º": 1009,
      "æģ¯è¾¹çķĮ": 1010,
      "æ¶Īæģ¯è¾¹çķĮ": 1011,
      "æ¼Ķç¤ºçļĦå°ı": 1012,
      "çĤ¹çļĦçŁŃåı¥": 1013,
      "çĲĨè§": 1014,
      "çľŁå®": 1015,
      "çŃĶ": 1016,
      "è½¬æį¢çļĦ": 1017,
      "é¢ĳæĸĩæľ¬ä¼ļæĽ´å®¹æĺĵ": 1018,
      "é«ĺé¢ĳæĸĩæľ¬ä¼ļæĽ´å®¹æĺĵ": 1019,
      "ĊĠĠĠ": 1020,
      "Ġä¹ĭéĹ´": 1021,
      "Ġä¸Ńæĸĩ": 1022,
      "Ġåĩ½æķ°": 1023,
      "Ġéĥ½ä¼ļå½±å": 1024,
      "ĠFrequent": 1025,
      "ĠTools": 1026,
      "ĠUnicode": 1027,
      "Ġdiverse": 1028,
      "Ġfrom": 1029,
      "Ġlike": 1030,
      "Ġpatterns": 1031,
      "ĠåĬ©æīĭ": 1032,
      "Ģè¦ģå¹²åĩ": 1033,
      "ħåĲ«ä¸Ńèĭ±æĸĩ": 1034,
      "į®è¯įè¡¨åĴĮç®": 1035,
      "ıçļĦæĸĩæľ¬": 1036,
      "ķ¿åº¦": 1037,
      "Ĺæ³ķå¾ĹåĪ°ä¸": 1038,
      "Ļä¸Ģä¸ªæŀģç®Ģ": 1039,
      "ľè¯ŃæĸĻè¦ĨçĽĸä¸įè¶³": 1040,
      "çļĦçĽ¸éĤ»çī": 1041,
      "æĪĸå·¥åħ·è°ĥçĶ¨": 1042,
      "ç»ĻæĪĳä¸Ģä¸ªåĮ": 1043,
      "ç»Łè®¡åŃĹç¬¦ä¸²é": 1044,
      "åıįå¤įåĲĪå¹¶": 1045,
      "Ġstarts": 1046,
      "Ġsufficient": 1047,
      "çĶ¨æĿ¥è§Ĥå¯Ł": 1048,
      "å®ĥä»¬å¸¸çĶ¨äºİæłĩè®°": 1049,
      "åĪĩå¾Ĺå¾Īç¢İ": 1050,
      "åĴĮåŃ¦ä¹łæķĪçİĩ": 1051,
      "è®Ńç»ĥè¶Ĭé¡º": 1052,
      "ä½łåı¯ä»¥è°ĥçĶ¨": 1053,
      "æķĻåŃ¦æ¼Ķç¤ºçļĦå°ı": 1054,
      "ĠçļĦè¯ŃæĸĻè¦ģè¦ĨçĽĸçĽ®æłĩåľºæĻ¯": 1055,
      "ĠçļĦè¯įè¡¨æĿ¥èĩªè®Ńç»ĥ": 1056,
      "ĠçļĦæł¸å¿ĥæĢĿæĥ": 1057,
      "è¯ŃæĸĻä¸ŃæľĢå¸¸è§ģ": 1058,
      "translated": 1059,
      "å¤ļæł·": 1060,
      "Ġmixed": 1061,
      "Ġminimind": 1062,
      "Ġmerged": 1063,
      "Ġrequires": 1064,
      "Ġrepresented": 1065,
      "Ġreturn": 1066,
      "è¯·åĨĻä¸Ģä¸ªæŀģç®Ģ": 1067,
      "è¯·çĶ¨ä¸Ģåı¥è¯Ŀä»ĭç»": 1068,
      "è¯·åħĪç®ĢçŁŃæĢĿèĢĥ": 1069,
      "æĪĳæŃ£åľ¨åŃ¦ä¹łå¤§è¯Ńè¨Ģæ¨¡åŀĭ": 1070,
      "ä¸Ģä¸ªçĶ¨äºİæķĻåŃ¦æ¼Ķç¤ºçļĦå°ı": 1071,
      "æĬĬä¸ĭéĿ¢è¿Ļ": 1072,
      "MiniMind": 1073,
      "åĨįåĽŀçŃĶ": 1074,
      "å¦Ĥæŀľè¯ŃæĸĻè¦ĨçĽĸä¸įè¶³": 1075,
      "Ġemoji": 1076,
      "Ġexplain": 1077,
      "Ġä¼ļä»İåŁºç¡Ģç¬¦åı·å¼Ģ": 1078,
      "Ġä¼ļæł¹æį®è¯įè¡¨åĴĮç®": 1079,
      "Ġæĺ¯æĬĬæĸĩæľ¬åĪĩåĪĨæĪĲ": 1080,
      "ĠåĴĮæ¨¡åŀĭçº¦å®ļçļĦæİ": 1081,
      "Ġtranslate": 1082,
      "Ġtraining": 1083,
      "æľĢåĲİå½¢æĪĲå¸¸çĶ¨åŃĲè¯į": 1084,
      "æķ°åŃĹåĴĮæłĩçĤ¹çļĦçŁŃåı¥": 1085,
      "è¶³éĩıçļĦæĸĩæľ¬": 1086,
      "å½¢æĪĲç¨³å®ļ": 1087,
      "åĲİç»Ńæ¨¡åŀĭè®Ńç»ĥè¶Ĭé¡º": 1088,
      "åı¥è¯ĿåĪĩæĪĲæĽ´å®¹æĺĵçĲĨè§": 1089,
      "åĪĨè¯įåĻ¨è®Ńç»ĥéľĢè¦ģå¹²åĩ": 1090,
      "éĥ½ä¼ļåıĺå·®": 1091,
      "å¸¸è§ģè¡¨è¾¾ä¼ļè¢«": 1092,
      "æĢĿèĢĥåĮºéĹ´æĪĸå·¥åħ·è°ĥçĶ¨": 1093,
      "çĽ®æłĩåľºæĻ¯è¦ĨçĽĸè¶ĬåħħåĪĨ": 1094,
      "£çļĦå°ıåĿĹ": 1095,
      "åİĭç¼©çİĩåĴĮåŃ¦ä¹łæķĪçİĩ": 1096,
      "çľŁå®ŀ": 1097,
      "è½¬æį¢çļĦå·¥åħ·": 1098,
      "é«ĺé¢ĳæĸĩæľ¬ä¼ļæĽ´å®¹æĺĵå½¢æĪĲç¨³å®ļ": 1099,
      "Ġä¹ĭéĹ´è½¬æį¢çļĦå·¥åħ·": 1100,
      "Ġéĥ½ä¼ļå½±åĵįåĪĩåĪĨ": 1101,
      "Ĺæ³ķå¾ĹåĪ°ä¸įåĲĮåĪĩåĪĨ": 1102,
      "çļĦçĽ¸éĤ»çīĩæ®µ": 1103,
      "ç»ĻæĪĳä¸Ģä¸ªåĮħåĲ«ä¸Ńèĭ±æĸĩ": 1104,
      "ç»Łè®¡åŃĹç¬¦ä¸²éķ¿åº¦": 1105,
      "åıįå¤įåĲĪå¹¶è¯ŃæĸĻä¸ŃæľĢå¸¸è§ģ": 1106,
      "Ġsufficiently": 1107,
      "å®ĥä»¬å¸¸çĶ¨äºİæłĩè®°æ¶Īæģ¯è¾¹çķĮ": 1108,
      "ĠçļĦè¯įè¡¨æĿ¥èĩªè®Ńç»ĥè¯ŃæĸĻ": 1109,
      "ĠçļĦæł¸å¿ĥæĢĿæĥ³æĺ¯ä»Ģä¹Ī": 1110,
      "è¯·çĶ¨ä¸Ģåı¥è¯Ŀä»ĭç»įä»Ģä¹Īæĺ¯": 1111,
      "æĪĳæŃ£åľ¨åŃ¦ä¹łå¤§è¯Ńè¨Ģæ¨¡åŀĭçļĦåĪĨè¯įåĻ¨è®Ńç»ĥ": 1112,
      "ä¸Ģä¸ªçĶ¨äºİæķĻåŃ¦æ¼Ķç¤ºçļĦå°ıåŀĭ": 1113,
      "æĬĬä¸ĭéĿ¢è¿Ļåı¥è¯ĿåĪĩæĪĲæĽ´å®¹æĺĵçĲĨè§": 1114,
      "Ġä¼ļä»İåŁºç¡Ģç¬¦åı·å¼Ģå§ĭ": 1115,
      "Ġä¼ļæł¹æį®è¯įè¡¨åĴĮç®Ĺæ³ķå¾ĹåĪ°ä¸įåĲĮåĪĩåĪĨ": 1116,
      "ĠåĴĮæ¨¡åŀĭçº¦å®ļçļĦæİ§åĪ¶æłĩè®°": 1117,
      "æľĢåĲİå½¢æĪĲå¸¸çĶ¨åŃĲè¯įè¯įè¡¨": 1118,
      "åĪĨè¯įåĻ¨è®Ńç»ĥéľĢè¦ģå¹²åĩĢ": 1119,
      "å¸¸è§ģè¡¨è¾¾ä¼ļè¢«åĪĩå¾Ĺå¾Īç¢İ": 1120,
      "åİĭç¼©çİĩåĴĮåŃ¦ä¹łæķĪçİĩéĥ½ä¼ļåıĺå·®": 1121,
      "åıįå¤įåĲĪå¹¶è¯ŃæĸĻä¸ŃæľĢå¸¸è§ģçļĦçĽ¸éĤ»çīĩæ®µ": 1122,
      "æĬĬä¸ĭéĿ¢è¿Ļåı¥è¯ĿåĪĩæĪĲæĽ´å®¹æĺĵçĲĨè§£çļĦå°ıåĿĹ": 1123
    },
    "merges": [
      [
        "ã",
        "Ģ"
      ],
      [
        "e",
        "n"
      ],
      [
        "ï",
        "¼"
      ],
      [
        "è",
        "¯"
      ],
      [
        "Ġ",
        "t"
      ],
      [
        "ä",
        "¸"
      ],
      [
        "ãĢ",
        "Ĥ"
      ],
      [
        "i",
        "n"
      ],
      [
        "k",
        "en"
      ],
      [
        "o",
        "ken"
      ],
      [
        "å",
        "Ī"
      ],
      [
        "ï¼",
        "Į"
      ],
      [
        "e",
        "r"
      ],
      [
        "Ġt",
        "oken"
      ],
      [
        "ç",
        "ļ"
      ],
      [
        "çļ",
        "Ħ"
      ],
      [
        "t",
        "e"
      ],
      [
        "æ",
        "Ī"
      ],
      [
        "æ",
        "ĸ"
      ],
      [
        "ç",
        "»"
      ],
      [
        "a",
        "n"
      ],
      [
        "r",
        "e"
      ],
      [
        "ä",
        "»"
      ],
      [
        "å",
        "ı"
      ],
      [
        "è",
        "®"
      ],
      [
        "ãĢ",
        "ģ"
      ],
      [
        "i",
        "z"
      ],
      [
        "t",
        "h"
      ],
      [
        "ä",
        "¹"
      ],
      [
        "æ",
        "ĺ"
      ],
      [
        "æ",
        "ł"
      ],
      [
        "iz",
        "er"
      ],
      [
        "x",
        "t"
      ],
      [
        "å",
        "Ń"
      ],
      [
        "ç",
        "Ķ"
      ],
      [
        "Ġ",
        "s"
      ],
      [
        "į",
        "å"
      ],
      [
        "åĪ",
        "Ĩ"
      ],
      [
        "æĪ",
        "Ĳ"
      ],
      [
        "æĸ",
        "ĩ"
      ],
      [
        "çĶ",
        "¨"
      ],
      [
        "¼",
        "ļ"
      ],
      [
        "ä",
        "¼ļ"
      ],
      [
        "å",
        "®"
      ],
      [
        "å",
        "Ĵ"
      ],
      [
        "æ",
        "ľ"
      ],
      [
        "ç",
        "Ľ"
      ],
      [
        "Ġ",
        "/"
      ],
      [
        "Ń",
        "ç»"
      ],
      [
        "è¯",
        "Ń"
      ],
      [
        "åĪ",
        "ĩ"
      ],
      [
        "Ġtoken",
        "izer"
      ],
      [
        "è®",
        "Ńç»"
      ],
      [
        "æĺ",
        "¯"
      ],
      [
        "åĴ",
        "Į"
      ],
      [
        "è®Ńç»",
        "ĥ"
      ],
      [
        "l",
        "a"
      ],
      [
        "å",
        "ħ"
      ],
      [
        "å",
        "ľ"
      ],
      [
        "å",
        "ŀ"
      ],
      [
        "è",
        "¦"
      ],
      [
        "Ġ",
        "w"
      ],
      [
        "ï¼",
        "ļ"
      ],
      [
        "in",
        "k"
      ],
      [
        "th",
        "ink"
      ],
      [
        "æł",
        "ĩ"
      ],
      [
        "åŀ",
        "ĭ"
      ],
      [
        "B",
        "P"
      ],
      [
        "`",
        "`"
      ],
      [
        "e",
        "l"
      ],
      [
        "e",
        "v"
      ],
      [
        "o",
        "r"
      ],
      [
        "y",
        "te"
      ],
      [
        "¡",
        "¨"
      ],
      [
        "¡",
        "åŀĭ"
      ],
      [
        "¨",
        "¡åŀĭ"
      ],
      [
        "¸",
        "¸"
      ],
      [
        "½",
        "ł"
      ],
      [
        "ä",
        "½ł"
      ],
      [
        "å",
        "·"
      ],
      [
        "å",
        "¸¸"
      ],
      [
        "æ",
        "ķ"
      ],
      [
        "æ",
        "¨¡åŀĭ"
      ],
      [
        "è",
        "§"
      ],
      [
        "è",
        "¶"
      ],
      [
        "è",
        "¡¨"
      ],
      [
        "Ġ",
        "çļĦ"
      ],
      [
        "Ģ",
        "Ŀ"
      ],
      [
        "Ģ",
        "ä¹"
      ],
      [
        "è¯",
        "į"
      ],
      [
        "ä¸",
        "Ģ"
      ],
      [
        "te",
        "xt"
      ],
      [
        "æĸ",
        "Ļ"
      ],
      [
        "ä»",
        "Ģä¹"
      ],
      [
        "åŃ",
        "¦"
      ],
      [
        "æĸĩ",
        "æľ"
      ],
      [
        "è¯Ń",
        "æĸĻ"
      ],
      [
        "BP",
        "E"
      ],
      [
        "ä»Ģä¹",
        "Ī"
      ],
      [
        "æĸĩæľ",
        "¬"
      ],
      [
        ">",
        "ãĢģ"
      ],
      [
        "a",
        "re"
      ],
      [
        "e",
        "xt"
      ],
      [
        "g",
        "e"
      ],
      [
        "i",
        "m"
      ],
      [
        "i",
        "s"
      ],
      [
        "l",
        "e"
      ],
      [
        "o",
        "l"
      ],
      [
        "t",
        "r"
      ],
      [
        "¥",
        "åħ"
      ],
      [
        "¬",
        "¦"
      ],
      [
        "¹",
        "æ"
      ],
      [
        "å",
        "¤"
      ],
      [
        "å",
        "¹"
      ],
      [
        "å",
        "½"
      ],
      [
        "å",
        "¾"
      ],
      [
        "å",
        "Ĳ"
      ],
      [
        "æ",
        "Ĭ"
      ],
      [
        "æ",
        "ĢĿ"
      ],
      [
        "ç",
        "®"
      ],
      [
        "ç",
        "ī"
      ],
      [
        "ç",
        "¬¦"
      ],
      [
        "Ġ",
        "b"
      ],
      [
        "Ġ",
        "c"
      ],
      [
        "Ġ",
        "m"
      ],
      [
        "Ġ",
        "re"
      ],
      [
        "Ĩ",
        "çĽ"
      ],
      [
        "Ļ",
        "¨"
      ],
      [
        "ï¼",
        "Ł"
      ],
      [
        "è¯",
        "·"
      ],
      [
        "è¯",
        "įå"
      ],
      [
        "Ġt",
        "ext"
      ],
      [
        "ä¸",
        "ª"
      ],
      [
        "ä¸",
        "Ń"
      ],
      [
        "æĪ",
        "ĳ"
      ],
      [
        "an",
        "d"
      ],
      [
        "åı",
        "¥"
      ],
      [
        "ä¹",
        "ł"
      ],
      [
        "åĪĨ",
        "è¯įå"
      ],
      [
        "åĪĩ",
        "åĪĨ"
      ],
      [
        "åľ",
        "¨"
      ],
      [
        "è¦",
        "ĨçĽ"
      ],
      [
        "Ġw",
        "or"
      ],
      [
        "å·",
        "¥åħ"
      ],
      [
        "è¯į",
        "è¡¨"
      ],
      [
        "ä¸Ģ",
        "ä¸ª"
      ],
      [
        "åŃ¦",
        "ä¹ł"
      ],
      [
        ">ãĢģ",
        "<"
      ],
      [
        "æĬ",
        "Ĭ"
      ],
      [
        "åĪĨè¯įå",
        "Ļ¨"
      ],
      [
        "è¦ĨçĽ",
        "ĸ"
      ],
      [
        "å·¥åħ",
        "·"
      ],
      [
        "B",
        "yte"
      ],
      [
        "E",
        "n"
      ],
      [
        "H",
        "el"
      ],
      [
        "L",
        "ev"
      ],
      [
        "M",
        "in"
      ],
      [
        "a",
        "r"
      ],
      [
        "a",
        "s"
      ],
      [
        "b",
        "ol"
      ],
      [
        "d",
        "e"
      ],
      [
        "g",
        "l"
      ],
      [
        "h",
        "en"
      ],
      [
        "i",
        "c"
      ],
      [
        "l",
        "d"
      ],
      [
        "l",
        "o"
      ],
      [
        "l",
        "en"
      ],
      [
        "m",
        "bol"
      ],
      [
        "o",
        "n"
      ],
      [
        "q",
        "u"
      ],
      [
        "r",
        "are"
      ],
      [
        "s",
        "la"
      ],
      [
        "t",
        "ar"
      ],
      [
        "y",
        "th"
      ],
      [
        "y",
        "mbol"
      ],
      [
        "|",
        ">ãĢģ<"
      ],
      [
        "¢",
        "æĪĲ"
      ],
      [
        "£",
        "åľ¨"
      ],
      [
        "¤",
        "º"
      ],
      [
        "¥",
        "½"
      ],
      [
        "¥",
        "è"
      ],
      [
        "¦",
        "Ĥ"
      ],
      [
        "§",
        "è¯Ń"
      ],
      [
        "¨",
        "Ģ"
      ],
      [
        "®",
        "Ĭ"
      ],
      [
        "®",
        "æłĩ"
      ],
      [
        "¯",
        "ä»"
      ],
      [
        "°",
        "ĥ"
      ],
      [
        "°",
        "ı"
      ],
      [
        "±",
        "æĸĩ"
      ],
      [
        "´",
        "å®"
      ],
      [
        "¹",
        "æĺ"
      ],
      [
        "º",
        "¦"
      ],
      [
        "º",
        "æ"
      ],
      [
        "º",
        "İ"
      ],
      [
        "»",
        "è¯"
      ],
      [
        "½",
        "ä¼ļ"
      ],
      [
        "¾",
        "ĭ"
      ],
      [
        "¿",
        "»è¯"
      ],
      [
        "ä",
        "ºİ"
      ],
      [
        "ä",
        "¾ĭ"
      ],
      [
        "å",
        "Ĩ"
      ],
      [
        "å",
        "ĩ"
      ],
      [
        "å",
        "Į"
      ],
      [
        "å",
        "¥½"
      ],
      [
        "å",
        "¦Ĥ"
      ],
      [
        "å",
        "°ı"
      ],
      [
        "æ",
        "Ľ"
      ],
      [
        "æ",
        "Ŀ"
      ],
      [
        "æ",
        "ŀ"
      ],
      [
        "æ",
        "Ń"
      ],
      [
        "ç",
        "İ"
      ],
      [
        "ç",
        "ķ"
      ],
      [
        "ç",
        "Ł"
      ],
      [
        "ç",
        "¤º"
      ],
      [
        "ç",
        "¿»è¯"
      ],
      [
        "è",
        "¾"
      ],
      [
        "è",
        "Ģ"
      ],
      [
        "è",
        "ĭ"
      ],
      [
        "è",
        "¨Ģ"
      ],
      [
        "é",
        "ĥ"
      ],
      [
        "é",
        "Ĺ"
      ],
      [
        "Ġ",
        "<"
      ],
      [
        "Ġ",
        "e"
      ],
      [
        "Ġ",
        "h"
      ],
      [
        "Ġ",
        "Ġ"
      ],
      [
        "Ġ",
        "in"
      ],
      [
        "Ġ",
        "ä¼ļ"
      ],
      [
        "Ġ",
        "æĺ¯"
      ],
      [
        "Ġ",
        "åĴĮ"
      ],
      [
        "Ġ",
        "la"
      ],
      [
        "Ġ",
        "ev"
      ],
      [
        "Ġ",
        "BPE"
      ],
      [
        "Ġ",
        "and"
      ],
      [
        "Ġ",
        "rare"
      ],
      [
        "ĳ",
        "æĪĲ"
      ],
      [
        "Ļ",
        "¯"
      ],
      [
        "en",
        "t"
      ],
      [
        "è¯",
        "Ŀ"
      ],
      [
        "Ġt",
        "r"
      ],
      [
        "ä¸",
        "º"
      ],
      [
        "in",
        "g"
      ],
      [
        "oken",
        "izer"
      ],
      [
        "Ġtoken",
        "s"
      ],
      [
        "çļĦ",
        "å°ı"
      ],
      [
        "te",
        "d"
      ],
      [
        "an",
        "sla"
      ],
      [
        "re",
        "s"
      ],
      [
        "åı",
        "·"
      ],
      [
        "åı",
        "¯ä»"
      ],
      [
        "è®",
        "°"
      ],
      [
        "åŃ",
        "Ĺ"
      ],
      [
        "Ġs",
        "tr"
      ],
      [
        "Ġs",
        "ymbol"
      ],
      [
        "įå",
        "Ĳ"
      ],
      [
        "çĶ¨",
        "äºİ"
      ],
      [
        "å®",
        "ļ"
      ],
      [
        "æľ",
        "Ģ"
      ],
      [
        "çĽ",
        "®æłĩ"
      ],
      [
        "åĪĩ",
        "æĪĲ"
      ],
      [
        "åľ",
        "ºæ"
      ],
      [
        "è¦",
        "ģ"
      ],
      [
        "æłĩ",
        "è®°"
      ],
      [
        "``",
        "`"
      ],
      [
        "ä½ł",
        "å¥½"
      ],
      [
        "å¸¸",
        "è§"
      ],
      [
        "æķ",
        "°"
      ],
      [
        "è¶",
        "³"
      ],
      [
        "è¶",
        "Ĭ"
      ],
      [
        "ä»Ģä¹Ī",
        "æĺ¯"
      ],
      [
        "is",
        "h"
      ],
      [
        "¹æ",
        "®Ĭ"
      ],
      [
        "å¤",
        "§è¯Ń"
      ],
      [
        "å¹",
        "¶"
      ],
      [
        "å½",
        "¢æĪĲ"
      ],
      [
        "å¾",
        "Ĺ"
      ],
      [
        "åĲ",
        "İ"
      ],
      [
        "æĢĿ",
        "èĢ"
      ],
      [
        "ç®",
        "Ģ"
      ],
      [
        "çī",
        "¹æ®Ĭ"
      ],
      [
        "ç¬¦",
        "åı·"
      ],
      [
        "Ġb",
        "yte"
      ],
      [
        "Ġc",
        "an"
      ],
      [
        "åı¥",
        "è¯Ŀ"
      ],
      [
        "Ġwor",
        "ld"
      ],
      [
        "åĪĨè¯įåĻ¨",
        "è®Ńç»ĥ"
      ],
      [
        "Byte",
        "Lev"
      ],
      [
        "En",
        "gl"
      ],
      [
        "Hel",
        "lo"
      ],
      [
        "tar",
        "t"
      ],
      [
        "yth",
        "on"
      ],
      [
        "°ĥ",
        "çĶ¨"
      ],
      [
        "´å®",
        "¹æĺ"
      ],
      [
        "æĽ",
        "´å®¹æĺ"
      ],
      [
        "æŃ",
        "£åľ¨"
      ],
      [
        "çİ",
        "ĩ"
      ],
      [
        "çķ",
        "Į"
      ],
      [
        "çŁ",
        "Ń"
      ],
      [
        "ç¿»è¯",
        "ĳæĪĲ"
      ],
      [
        "èĭ",
        "±æĸĩ"
      ],
      [
        "è¨Ģ",
        "æ¨¡åŀĭ"
      ],
      [
        "éĥ",
        "½ä¼ļ"
      ],
      [
        "éĹ",
        "´"
      ],
      [
        "Ġin",
        "t"
      ],
      [
        "Ġla",
        "r"
      ],
      [
        "çĽ®æłĩ",
        "åľºæ"
      ],
      [
        "å¸¸è§",
        "ģ"
      ],
      [
        "å¤§è¯Ń",
        "è¨Ģæ¨¡åŀĭ"
      ],
      [
        "æĢĿèĢ",
        "ĥ"
      ],
      [
        "ByteLev",
        "el"
      ],
      [
        "Engl",
        "ish"
      ],
      [
        "æĽ´å®¹æĺ",
        "ĵ"
      ],
      [
        "çĽ®æłĩåľºæ",
        "Ļ¯"
      ],
      [
        "\"",
        ":"
      ],
      [
        "\"",
        "}"
      ],
      [
        "-",
        ">"
      ],
      [
        "0",
        "0"
      ],
      [
        "1",
        "2"
      ],
      [
        "4",
        "00"
      ],
      [
        "<",
        "/"
      ],
      [
        ">",
        "ï¼Į"
      ],
      [
        "A",
        "I"
      ],
      [
        "F",
        "re"
      ],
      [
        "P",
        "le"
      ],
      [
        "P",
        "ython"
      ],
      [
        "T",
        "o"
      ],
      [
        "T",
        "okenizer"
      ],
      [
        "U",
        "n"
      ],
      [
        "a",
        "t"
      ],
      [
        "a",
        "in"
      ],
      [
        "a",
        "ge"
      ],
      [
        "d",
        "i"
      ],
      [
        "e",
        "d"
      ],
      [
        "f",
        "f"
      ],
      [
        "f",
        "r"
      ],
      [
        "g",
        "u"
      ],
      [
        "g",
        "er"
      ],
      [
        "g",
        "th"
      ],
      [
        "h",
        "y"
      ],
      [
        "i",
        "d"
      ],
      [
        "i",
        "k"
      ],
      [
        "i",
        "x"
      ],
      [
        "i",
        "Min"
      ],
      [
        "i",
        "ent"
      ],
      [
        "i",
        "res"
      ],
      [
        "j",
        "i"
      ],
      [
        "l",
        "y"
      ],
      [
        "l",
        "an"
      ],
      [
        "l",
        "ik"
      ],
      [
        "m",
        "o"
      ],
      [
        "n",
        "s"
      ],
      [
        "o",
        "m"
      ],
      [
        "o",
        "de"
      ],
      [
        "p",
        "la"
      ],
      [
        "p",
        "res"
      ],
      [
        "p",
        "ython"
      ],
      [
        "p",
        "at"
      ],
      [
        "r",
        "n"
      ],
      [
        "s",
        "e"
      ],
      [
        "s",
        "tart"
      ],
      [
        "t",
        "u"
      ],
      [
        "t",
        "er"
      ],
      [
        "t",
        "okenizer"
      ],
      [
        "u",
        "ff"
      ],
      [
        "v",
        "er"
      ],
      [
        "x",
        "pla"
      ],
      [
        "{",
        "\""
      ],
      [
        "¡",
        "º"
      ],
      [
        "¡",
        "Ģ"
      ],
      [
        "¡",
        "åŃĹ"
      ],
      [
        "¢",
        "«"
      ],
      [
        "¢",
        "è"
      ],
      [
        "¢",
        "İ"
      ],
      [
        "¢",
        "ĳ"
      ],
      [
        "¢",
        "çļĦ"
      ],
      [
        "£",
        "çļĦå°ı"
      ],
      [
        "¤",
        "įåĲ"
      ],
      [
        "¥",
        "è§"
      ],
      [
        "¥",
        "åĪĩæĪĲ"
      ],
      [
        "§",
        "ĭ"
      ],
      [
        "§",
        "åĪ"
      ],
      [
        "¨",
        "³"
      ],
      [
        "©",
        "æ"
      ],
      [
        "©",
        "çİĩ"
      ],
      [
        "ª",
        "è®Ńç»ĥ"
      ],
      [
        "«",
        "ĺ"
      ],
      [
        "«",
        "ä¸Ń"
      ],
      [
        "¬",
        "æ"
      ],
      [
        "¬",
        "å¸¸"
      ],
      [
        "®",
        "µ"
      ],
      [
        "®",
        "è¯įè¡¨"
      ],
      [
        "¯",
        "Ł"
      ],
      [
        "¯",
        "è¾"
      ],
      [
        "°",
        "ä¸"
      ],
      [
        "±",
        "å"
      ],
      [
        "²",
        "é"
      ],
      [
        "²",
        "åĩ"
      ],
      [
        "³",
        "ķ"
      ],
      [
        "³",
        "æĺ¯"
      ],
      [
        "¶",
        "Ī"
      ],
      [
        "¶",
        "æłĩè®°"
      ],
      [
        "¸",
        "å"
      ],
      [
        "¸",
        "é"
      ],
      [
        "¹",
        "çļĦ"
      ],
      [
        "¹",
        "çķĮ"
      ],
      [
        "º",
        "ç"
      ],
      [
        "º",
        "éĹ´"
      ],
      [
        "»",
        "çī"
      ],
      [
        "¼",
        "Ģ"
      ],
      [
        "¼",
        "Ķ"
      ],
      [
        "¼",
        "©çİĩ"
      ],
      [
        "½",
        "æķ°"
      ],
      [
        "½",
        "¬æ"
      ],
      [
        "¾",
        "ä¼ļ"
      ],
      [
        "¿",
        "å"
      ],
      [
        "¿",
        "ĥ"
      ],
      [
        "¿",
        "Ļ"
      ],
      [
        "Î",
        "Ķ"
      ],
      [
        "Ï",
        "Ģ"
      ],
      [
        "â",
        "Ģ"
      ],
      [
        "â",
        "ĢĿ"
      ],
      [
        "å",
        "Ĭ"
      ],
      [
        "å",
        "İ"
      ],
      [
        "å",
        "Ľ"
      ],
      [
        "å",
        "Ŀ"
      ],
      [
        "å",
        "Ł"
      ],
      [
        "å",
        "§ĭ"
      ],
      [
        "å",
        "¯Ł"
      ],
      [
        "å",
        "¼Ģ"
      ],
      [
        "æ",
        "ģ"
      ],
      [
        "æ",
        "ĥ"
      ],
      [
        "æ",
        "İ"
      ],
      [
        "æ",
        "®µ"
      ],
      [
        "æ",
        "³ķ"
      ],
      [
        "æ",
        "¶Ī"
      ],
      [
        "æ",
        "¼Ķ"
      ],
      [
        "ç",
        "Ĥ"
      ],
      [
        "ç",
        "Ĳ"
      ],
      [
        "ç",
        "ľ"
      ],
      [
        "ç",
        "Ń"
      ],
      [
        "ç",
        "º¦"
      ],
      [
        "ç",
        "¢İ"
      ],
      [
        "ç",
        "¨³"
      ],
      [
        "ç",
        "¼©çİĩ"
      ],
      [
        "è",
        "°ĥçĶ¨"
      ],
      [
        "è",
        "¢«"
      ],
      [
        "è",
        "½¬æ"
      ],
      [
        "é",
        "ĩ"
      ],
      [
        "é",
        "ľ"
      ],
      [
        "é",
        "Ŀ"
      ],
      [
        "é",
        "¡º"
      ],
      [
        "é",
        "¢ĳ"
      ],
      [
        "é",
        "«ĺ"
      ],
      [
        "Ċ",
        "ĠĠ"
      ],
      [
        "Ġ",
        "6"
      ],
      [
        "Ġ",
        "a"
      ],
      [
        "Ġ",
        "ä¹"
      ],
      [
        "Ġ",
        "è®Ńç»ĥ"
      ],
      [
        "Ġ",
        "or"
      ],
      [
        "Ġ",
        "are"
      ],
      [
        "Ġ",
        "is"
      ],
      [
        "Ġ",
        "ä¸Ń"
      ],
      [
        "Ġ",
        "åŃ¦ä¹ł"
      ],
      [
        "Ġ",
        "åĪĨè¯įåĻ¨"
      ],
      [
        "Ġ",
        "å·¥åħ·"
      ],
      [
        "Ġ",
        "len"
      ],
      [
        "Ġ",
        "åĩ"
      ],
      [
        "Ġ",
        "æŃ£åľ¨"
      ],
      [
        "Ġ",
        "éĥ½ä¼ļ"
      ],
      [
        "Ġ",
        "å¤§è¯Ńè¨Ģæ¨¡åŀĭ"
      ],
      [
        "Ġ",
        "ByteLevel"
      ],
      [
        "Ġ",
        "English"
      ],
      [
        "Ġ",
        "->"
      ],
      [
        "Ġ",
        "AI"
      ],
      [
        "Ġ",
        "Fre"
      ],
      [
        "Ġ",
        "Python"
      ],
      [
        "Ġ",
        "To"
      ],
      [
        "Ġ",
        "Un"
      ],
      [
        "Ġ",
        "di"
      ],
      [
        "Ġ",
        "fr"
      ],
      [
        "Ġ",
        "id"
      ],
      [
        "Ġ",
        "lik"
      ],
      [
        "Ġ",
        "pat"
      ],
      [
        "Ġ",
        "ÎĶ"
      ],
      [
        "Ġ",
        "ÏĢ"
      ],
      [
        "Ġ",
        "åĬ"
      ],
      [
        "Ģ",
        "è¦ģ"
      ],
      [
        "ģ",
        "ç®Ģ"
      ],
      [
        "Ĥ",
        "»çī"
      ],
      [
        "Ĥ",
        "å¯Ł"
      ],
      [
        "ĥ",
        "ä»"
      ],
      [
        "ħ",
        "åĪĨ"
      ],
      [
        "ħ",
        "åĲ"
      ],
      [
        "Ĩ",
        "è§"
      ],
      [
        "ĩ",
        "ªè®Ńç»ĥ"
      ],
      [
        "ĩ",
        "æ®µ"
      ],
      [
        "Ī",
        "å¹¶"
      ],
      [
        "Ī",
        "ç®Ģ"
      ],
      [
        "Ī",
        "çİĩ"
      ],
      [
        "Ī",
        "ç¢İ"
      ],
      [
        "ī",
        "ĭ"
      ],
      [
        "ĭ",
        "ç»"
      ],
      [
        "ĭ",
        "éĹ´"
      ],
      [
        "ĭ",
        "ç¼©çİĩ"
      ],
      [
        "ĭ",
        "éĿ"
      ],
      [
        "Į",
        "åĪĩåĪĨ"
      ],
      [
        "į",
        "åĪĩåĪĨ"
      ],
      [
        "į",
        "è¶³"
      ],
      [
        "į",
        "ä»Ģä¹Īæĺ¯"
      ],
      [
        "į",
        "¢çļĦ"
      ],
      [
        "į",
        "®è¯įè¡¨"
      ],
      [
        "İ",
        "åŁ"
      ],
      [
        "ı",
        "çļĦ"
      ],
      [
        "Ĳ",
        "è¯į"
      ],
      [
        "ĵ",
        "įåĪĩåĪĨ"
      ],
      [
        "ķ",
        "¿å"
      ],
      [
        "ĸ",
        "å·¥åħ·"
      ],
      [
        "ĸ",
        "çķĮ"
      ],
      [
        "Ĺ",
        "æ³ķ"
      ],
      [
        "ĺ",
        "å·"
      ],
      [
        "Ļ",
        "åŃ¦"
      ],
      [
        "Ļ",
        "æĪĳ"
      ],
      [
        "Ļ",
        "ä¸Ģä¸ª"
      ],
      [
        "ļ",
        "æł"
      ],
      [
        "Ľ",
        "ŀ"
      ],
      [
        "ľ",
        "è¯ŃæĸĻ"
      ],
      [
        "Ł",
        "è®"
      ],
      [
        "Ł",
        "å®"
      ],
      [
        "ł",
        "ä¸º"
      ],
      [
        "Ń",
        "æ¨¡åŀĭ"
      ],
      [
        "en",
        "d"
      ],
      [
        "en",
        "ted"
      ],
      [
        "ï¼",
        "Ľ"
      ],
      [
        "Ġt",
        "hen"
      ],
      [
        "ä¸",
        "²é"
      ],
      [
        "ä¸",
        "ĭéĿ"
      ],
      [
        "ä¸",
        "įè¶³"
      ],
      [
        "ä¸",
        "ĸçķĮ"
      ],
      [
        "in",
        "d"
      ],
      [
        "in",
        "im"
      ],
      [
        "åĪ",
        "°ä¸"
      ],
      [
        "er",
        "y"
      ],
      [
        "er",
        "ge"
      ],
      [
        "çļĦ",
        "çĽ"
      ],
      [
        "çļĦ",
        "åĪĨè¯įåĻ¨è®Ńç»ĥ"
      ],
      [
        "çļĦ",
        "æİ"
      ],
      [
        "æĪ",
        "ĸå·¥åħ·"
      ],
      [
        "ç»",
        "ĻæĪĳ"
      ],
      [
        "ç»",
        "Łè®"
      ],
      [
        "ç»",
        "Ńæ¨¡åŀĭ"
      ],
      [
        "ä»",
        "ĭç»"
      ],
      [
        "ä»",
        "İåŁ"
      ],
      [
        "åı",
        "įå"
      ],
      [
        "åı",
        "ĺå·"
      ],
      [
        "æł",
        "¹æ"
      ],
      [
        "æł",
        "¸å"
      ],
      [
        "åŃ",
        "Ĳè¯į"
      ],
      [
        "Ġs",
        "o"
      ],
      [
        "Ġs",
        "tart"
      ],
      [
        "Ġs",
        "uff"
      ],
      [
        "įå",
        "Ľŀ"
      ],
      [
        "çĶ¨",
        "ä¸Ģ"
      ],
      [
        "çĶ¨",
        "æĿ"
      ],
      [
        "çĶ¨",
        "åŃĲè¯į"
      ],
      [
        "ä¼ļ",
        "æĽ´å®¹æĺĵ"
      ],
      [
        "å®",
        "ĥä»"
      ],
      [
        "åĪĩ",
        "å¾Ĺ"
      ],
      [
        "åĴĮ",
        "æłĩ"
      ],
      [
        "åĴĮ",
        "ç®"
      ],
      [
        "åĴĮ",
        "åŃ¦ä¹ł"
      ],
      [
        "è®Ńç»ĥ",
        "è¶Ĭ"
      ],
      [
        "åħ",
        "ħåĪĨ"
      ],
      [
        "åħ",
        "Īç®Ģ"
      ],
      [
        "Ġw",
        "hen"
      ],
      [
        "Ġw",
        "hy"
      ],
      [
        "ä½ł",
        "æĺ¯"
      ],
      [
        "ä½ł",
        "åı¯ä»"
      ],
      [
        "å¸¸",
        "çĶ¨åŃĲè¯į"
      ],
      [
        "æķ",
        "Īçİĩ"
      ],
      [
        "æķ",
        "ĻåŃ¦"
      ],
      [
        "æ¨¡åŀĭ",
        "çº¦"
      ],
      [
        "è¡¨",
        "è¾"
      ],
      [
        "ĠçļĦ",
        "è¯ŃæĸĻ"
      ],
      [
        "ĠçļĦ",
        "è¯įè¡¨"
      ],
      [
        "ĠçļĦ",
        "æł¸å"
      ],
      [
        "è¯ŃæĸĻ",
        "ä¸Ń"
      ],
      [
        "ä»Ģä¹Ī",
        "è®Ńç»ĥ"
      ],
      [
        "æĸĩæľ¬",
        "åĴĮ"
      ],
      [
        "æĸĩæľ¬",
        "åĪĩåĪĨ"
      ],
      [
        "æĸĩæľ¬",
        "ä¼ļæĽ´å®¹æĺĵ"
      ],
      [
        "le",
        "an"
      ],
      [
        "ol",
        "s"
      ],
      [
        "tr",
        "ansla"
      ],
      [
        "å¤",
        "ļæł"
      ],
      [
        "å¹",
        "²åĩ"
      ],
      [
        "å½",
        "±å"
      ],
      [
        "å¾",
        "Īç¢İ"
      ],
      [
        "æĢĿ",
        "æĥ"
      ],
      [
        "ç¬¦",
        "ä¸²é"
      ],
      [
        "Ġb",
        "e"
      ],
      [
        "Ġc",
        "lean"
      ],
      [
        "Ġm",
        "ix"
      ],
      [
        "Ġm",
        "inim"
      ],
      [
        "Ġm",
        "erge"
      ],
      [
        "Ġre",
        "qu"
      ],
      [
        "Ġre",
        "pres"
      ],
      [
        "Ġre",
        "tu"
      ],
      [
        "è¯·",
        "åĨ"
      ],
      [
        "è¯·",
        "çĶ¨ä¸Ģ"
      ],
      [
        "è¯·",
        "åħĪç®Ģ"
      ],
      [
        "æĪĳ",
        "æŃ£åľ¨"
      ],
      [
        "and",
        "le"
      ],
      [
        "åľ¨",
        "æĸĩæľ¬åĴĮ"
      ],
      [
        "Ġwor",
        "d"
      ],
      [
        "ä¸Ģä¸ª",
        "åĮ"
      ],
      [
        "ä¸Ģä¸ª",
        "çĶ¨äºİ"
      ],
      [
        "åŃ¦ä¹ł",
        "å¤§è¯Ńè¨Ģæ¨¡åŀĭ"
      ],
      [
        ">ãĢģ<",
        "/"
      ],
      [
        "æĬĬ",
        "ä¸ĭéĿ"
      ],
      [
        "æĬĬ",
        "æĸĩæľ¬åĪĩåĪĨ"
      ],
      [
        "è¦ĨçĽĸ",
        "è¶Ĭ"
      ],
      [
        "è¦ĨçĽĸ",
        "çĽ®æłĩåľºæĻ¯"
      ],
      [
        "è¦ĨçĽĸ",
        "ä¸įè¶³"
      ],
      [
        "Min",
        "iMin"
      ],
      [
        "as",
        "e"
      ],
      [
        "de",
        "f"
      ],
      [
        "ic",
        "ient"
      ],
      [
        "ic",
        "ode"
      ],
      [
        "len",
        "gth"
      ],
      [
        "qu",
        "ent"
      ],
      [
        "|>ãĢģ<",
        "|"
      ],
      [
        "¥è",
        "°ĥçĶ¨"
      ],
      [
        "¥è",
        "ĩªè®Ńç»ĥ"
      ],
      [
        "ä¾ĭ",
        "å¦Ĥ"
      ],
      [
        "åĨ",
        "įåĽŀ"
      ],
      [
        "åĮ",
        "ºéĹ´"
      ],
      [
        "å¦Ĥ",
        "æŀ"
      ],
      [
        "æĿ",
        "¥èĩªè®Ńç»ĥ"
      ],
      [
        "æŀ",
        "ģç®Ģ"
      ],
      [
        "ç¤º",
        "ä¾ĭ"
      ],
      [
        "ç¤º",
        "çļĦå°ı"
      ],
      [
        "Ġ<",
        "|"
      ],
      [
        "Ġe",
        "mo"
      ],
      [
        "Ġe",
        "xpla"
      ],
      [
        "Ġh",
        "as"
      ],
      [
        "Ġh",
        "andle"
      ],
      [
        "Ġä¼ļ",
        "ä»İåŁ"
      ],
      [
        "Ġä¼ļ",
        "æł¹æ"
      ],
      [
        "Ġæĺ¯",
        "æĬĬæĸĩæľ¬åĪĩåĪĨ"
      ],
      [
        "ĠåĴĮ",
        "ç¬¦åı·"
      ],
      [
        "ĠåĴĮ",
        "æ¨¡åŀĭçº¦"
      ],
      [
        "Ġev",
        "en"
      ],
      [
        "Ġev",
        "ery"
      ],
      [
        "Ġtr",
        "ansla"
      ],
      [
        "Ġtr",
        "ain"
      ],
      [
        "ä¸º",
        "ä»Ģä¹Īè®Ńç»ĥ"
      ],
      [
        "åı¯ä»",
        "¥åĪĩæĪĲ"
      ],
      [
        "åŃĹ",
        "åĴĮæłĩ"
      ],
      [
        "Ġstr",
        "ing"
      ],
      [
        "Ġsymbol",
        "s"
      ],
      [
        "įåĲ",
        "ĮåĪĩåĪĨ"
      ],
      [
        "çĶ¨äºİ",
        "æłĩè®°"
      ],
      [
        "å®ļ",
        "çļĦæİ"
      ],
      [
        "æľĢ",
        "åĲİ"
      ],
      [
        "æľĢ",
        "å¸¸è§ģ"
      ],
      [
        "åĪĩæĪĲ",
        "æĽ´å®¹æĺĵ"
      ],
      [
        "è¦ģ",
        "è¦ĨçĽĸçĽ®æłĩåľºæĻ¯"
      ],
      [
        "ä½łå¥½",
        "ä¸ĸçķĮ"
      ],
      [
        "æķ°",
        "åŃĹåĴĮæłĩ"
      ],
      [
        "è¶³",
        "éĩ"
      ],
      [
        "ä»Ģä¹Īæĺ¯",
        "çī¹æ®Ĭ"
      ],
      [
        "å¹¶",
        "åľ¨æĸĩæľ¬åĴĮ"
      ],
      [
        "å½¢æĪĲ",
        "ç¨³"
      ],
      [
        "å½¢æĪĲ",
        "å¸¸çĶ¨åŃĲè¯į"
      ],
      [
        "å¾Ĺ",
        "åĪ°ä¸"
      ],
      [
        "åĲİ",
        "ç»Ńæ¨¡åŀĭ"
      ],
      [
        "ç¬¦åı·",
        "å¼Ģ"
      ],
      [
        "Ġbyte",
        "s"
      ],
      [
        "åı¥è¯Ŀ",
        "ä»ĭç»"
      ],
      [
        "åı¥è¯Ŀ",
        "åĪĩæĪĲæĽ´å®¹æĺĵ"
      ],
      [
        "åĪĨè¯įåĻ¨è®Ńç»ĥ",
        "éľ"
      ],
      [
        "çŁŃ",
        "åı¥"
      ],
      [
        "çŁŃ",
        "æĢĿèĢĥ"
      ],
      [
        "ç¿»è¯ĳæĪĲ",
        "èĭ±æĸĩ"
      ],
      [
        "éĥ½ä¼ļ",
        "åıĺå·"
      ],
      [
        "Ġint",
        "o"
      ],
      [
        "Ġlar",
        "ge"
      ],
      [
        "Ġlar",
        "ger"
      ],
      [
        "å¸¸è§ģ",
        "è¡¨è¾"
      ],
      [
        "æĢĿèĢĥ",
        "åĮºéĹ´"
      ],
      [
        "çĽ®æłĩåľºæĻ¯",
        "è¦ĨçĽĸè¶Ĭ"
      ],
      [
        "\":",
        "\""
      ],
      [
        "12",
        "3"
      ],
      [
        "Ple",
        "ase"
      ],
      [
        "gu",
        "age"
      ],
      [
        "lan",
        "guage"
      ],
      [
        "ter",
        "ns"
      ],
      [
        "ver",
        "se"
      ],
      [
        "¡Ģ",
        "ç¬¦åı·å¼Ģ"
      ],
      [
        "¡åŃĹ",
        "ç¬¦ä¸²é"
      ],
      [
        "¢è",
        "¿Ļ"
      ],
      [
        "£çļĦå°ı",
        "åĿ"
      ],
      [
        "¤įåĲ",
        "Īå¹¶"
      ],
      [
        "¥è§",
        "Ĥå¯Ł"
      ],
      [
        "§åĪ",
        "¶æłĩè®°"
      ],
      [
        "©æ",
        "īĭ"
      ],
      [
        "«ä¸Ń",
        "èĭ±æĸĩ"
      ],
      [
        "¬å¸¸",
        "çĶ¨äºİæłĩè®°"
      ],
      [
        "¯è¾",
        "¹çķĮ"
      ],
      [
        "³æĺ¯",
        "ä»Ģä¹Ī"
      ],
      [
        "¸é",
        "Ĥ»çī"
      ],
      [
        "¹çļĦ",
        "çŁŃåı¥"
      ],
      [
        "ºç",
        "¡Ģç¬¦åı·å¼Ģ"
      ],
      [
        "¾ä¼ļ",
        "è¢«"
      ],
      [
        "¿ĥ",
        "æĢĿæĥ"
      ],
      [
        "âĢ",
        "ľ"
      ],
      [
        "åİ",
        "ĭç¼©çİĩ"
      ],
      [
        "åĽ",
        "łä¸º"
      ],
      [
        "æģ",
        "¯è¾¹çķĮ"
      ],
      [
        "æ¶Ī",
        "æģ¯è¾¹çķĮ"
      ],
      [
        "æ¼Ķ",
        "ç¤ºçļĦå°ı"
      ],
      [
        "çĤ",
        "¹çļĦçŁŃåı¥"
      ],
      [
        "çĲ",
        "Ĩè§"
      ],
      [
        "çľ",
        "Łå®"
      ],
      [
        "çŃ",
        "Ķ"
      ],
      [
        "è½¬æ",
        "į¢çļĦ"
      ],
      [
        "é¢ĳ",
        "æĸĩæľ¬ä¼ļæĽ´å®¹æĺĵ"
      ],
      [
        "é«ĺ",
        "é¢ĳæĸĩæľ¬ä¼ļæĽ´å®¹æĺĵ"
      ],
      [
        "ĊĠĠ",
        "Ġ"
      ],
      [
        "Ġä¹",
        "ĭéĹ´"
      ],
      [
        "Ġä¸Ń",
        "æĸĩ"
      ],
      [
        "Ġåĩ",
        "½æķ°"
      ],
      [
        "Ġéĥ½ä¼ļ",
        "å½±å"
      ],
      [
        "ĠFre",
        "quent"
      ],
      [
        "ĠTo",
        "ols"
      ],
      [
        "ĠUn",
        "icode"
      ],
      [
        "Ġdi",
        "verse"
      ],
      [
        "Ġfr",
        "om"
      ],
      [
        "Ġlik",
        "e"
      ],
      [
        "Ġpat",
        "terns"
      ],
      [
        "ĠåĬ",
        "©æīĭ"
      ],
      [
        "Ģè¦ģ",
        "å¹²åĩ"
      ],
      [
        "ħåĲ",
        "«ä¸Ńèĭ±æĸĩ"
      ],
      [
        "į®è¯įè¡¨",
        "åĴĮç®"
      ],
      [
        "ıçļĦ",
        "æĸĩæľ¬"
      ],
      [
        "ķ¿å",
        "º¦"
      ],
      [
        "Ĺæ³ķ",
        "å¾ĹåĪ°ä¸"
      ],
      [
        "Ļä¸Ģä¸ª",
        "æŀģç®Ģ"
      ],
      [
        "ľè¯ŃæĸĻ",
        "è¦ĨçĽĸä¸įè¶³"
      ],
      [
        "çļĦçĽ",
        "¸éĤ»çī"
      ],
      [
        "æĪĸå·¥åħ·",
        "è°ĥçĶ¨"
      ],
      [
        "ç»ĻæĪĳ",
        "ä¸Ģä¸ªåĮ"
      ],
      [
        "ç»Łè®",
        "¡åŃĹç¬¦ä¸²é"
      ],
      [
        "åıįå",
        "¤įåĲĪå¹¶"
      ],
      [
        "Ġstart",
        "s"
      ],
      [
        "Ġsuff",
        "icient"
      ],
      [
        "çĶ¨æĿ",
        "¥è§Ĥå¯Ł"
      ],
      [
        "å®ĥä»",
        "¬å¸¸çĶ¨äºİæłĩè®°"
      ],
      [
        "åĪĩå¾Ĺ",
        "å¾Īç¢İ"
      ],
      [
        "åĴĮåŃ¦ä¹ł",
        "æķĪçİĩ"
      ],
      [
        "è®Ńç»ĥè¶Ĭ",
        "é¡º"
      ],
      [
        "ä½łåı¯ä»",
        "¥è°ĥçĶ¨"
      ],
      [
        "æķĻåŃ¦",
        "æ¼Ķç¤ºçļĦå°ı"
      ],
      [
        "ĠçļĦè¯ŃæĸĻ",
        "è¦ģè¦ĨçĽĸçĽ®æłĩåľºæĻ¯"
      ],
      [
        "ĠçļĦè¯įè¡¨",
        "æĿ¥èĩªè®Ńç»ĥ"
      ],
      [
        "ĠçļĦæł¸å",
        "¿ĥæĢĿæĥ"
      ],
      [
        "è¯ŃæĸĻä¸Ń",
        "æľĢå¸¸è§ģ"
      ],
      [
        "transla",
        "ted"
      ],
      [
        "å¤ļæł",
        "·"
      ],
      [
        "Ġmix",
        "ed"
      ],
      [
        "Ġminim",
        "ind"
      ],
      [
        "Ġmerge",
        "d"
      ],
      [
        "Ġrequ",
        "ires"
      ],
      [
        "Ġrepres",
        "ented"
      ],
      [
        "Ġretu",
        "rn"
      ],
      [
        "è¯·åĨ",
        "Ļä¸Ģä¸ªæŀģç®Ģ"
      ],
      [
        "è¯·çĶ¨ä¸Ģ",
        "åı¥è¯Ŀä»ĭç»"
      ],
      [
        "è¯·åħĪç®Ģ",
        "çŁŃæĢĿèĢĥ"
      ],
      [
        "æĪĳæŃ£åľ¨",
        "åŃ¦ä¹łå¤§è¯Ńè¨Ģæ¨¡åŀĭ"
      ],
      [
        "ä¸Ģä¸ªçĶ¨äºİ",
        "æķĻåŃ¦æ¼Ķç¤ºçļĦå°ı"
      ],
      [
        "æĬĬä¸ĭéĿ",
        "¢è¿Ļ"
      ],
      [
        "MiniMin",
        "d"
      ],
      [
        "åĨįåĽŀ",
        "çŃĶ"
      ],
      [
        "å¦Ĥæŀ",
        "ľè¯ŃæĸĻè¦ĨçĽĸä¸įè¶³"
      ],
      [
        "Ġemo",
        "ji"
      ],
      [
        "Ġexpla",
        "in"
      ],
      [
        "Ġä¼ļä»İåŁ",
        "ºç¡Ģç¬¦åı·å¼Ģ"
      ],
      [
        "Ġä¼ļæł¹æ",
        "į®è¯įè¡¨åĴĮç®"
      ],
      [
        "Ġæĺ¯æĬĬæĸĩæľ¬åĪĩåĪĨ",
        "æĪĲ"
      ],
      [
        "ĠåĴĮæ¨¡åŀĭçº¦",
        "å®ļçļĦæİ"
      ],
      [
        "Ġtransla",
        "te"
      ],
      [
        "Ġtrain",
        "ing"
      ],
      [
        "æľĢåĲİ",
        "å½¢æĪĲå¸¸çĶ¨åŃĲè¯į"
      ],
      [
        "æķ°åŃĹåĴĮæłĩ",
        "çĤ¹çļĦçŁŃåı¥"
      ],
      [
        "è¶³éĩ",
        "ıçļĦæĸĩæľ¬"
      ],
      [
        "å½¢æĪĲç¨³",
        "å®ļ"
      ],
      [
        "åĲİç»Ńæ¨¡åŀĭ",
        "è®Ńç»ĥè¶Ĭé¡º"
      ],
      [
        "åı¥è¯ĿåĪĩæĪĲæĽ´å®¹æĺĵ",
        "çĲĨè§"
      ],
      [
        "åĪĨè¯įåĻ¨è®Ńç»ĥéľ",
        "Ģè¦ģå¹²åĩ"
      ],
      [
        "éĥ½ä¼ļåıĺå·",
        "®"
      ],
      [
        "å¸¸è§ģè¡¨è¾",
        "¾ä¼ļè¢«"
      ],
      [
        "æĢĿèĢĥåĮºéĹ´",
        "æĪĸå·¥åħ·è°ĥçĶ¨"
      ],
      [
        "çĽ®æłĩåľºæĻ¯è¦ĨçĽĸè¶Ĭ",
        "åħħåĪĨ"
      ],
      [
        "£çļĦå°ıåĿ",
        "Ĺ"
      ],
      [
        "åİĭç¼©çİĩ",
        "åĴĮåŃ¦ä¹łæķĪçİĩ"
      ],
      [
        "çľŁå®",
        "ŀ"
      ],
      [
        "è½¬æį¢çļĦ",
        "å·¥åħ·"
      ],
      [
        "é«ĺé¢ĳæĸĩæľ¬ä¼ļæĽ´å®¹æĺĵ",
        "å½¢æĪĲç¨³å®ļ"
      ],
      [
        "Ġä¹ĭéĹ´",
        "è½¬æį¢çļĦå·¥åħ·"
      ],
      [
        "Ġéĥ½ä¼ļå½±å",
        "ĵįåĪĩåĪĨ"
      ],
      [
        "Ĺæ³ķå¾ĹåĪ°ä¸",
        "įåĲĮåĪĩåĪĨ"
      ],
      [
        "çļĦçĽ¸éĤ»çī",
        "ĩæ®µ"
      ],
      [
        "ç»ĻæĪĳä¸Ģä¸ªåĮ",
        "ħåĲ«ä¸Ńèĭ±æĸĩ"
      ],
      [
        "ç»Łè®¡åŃĹç¬¦ä¸²é",
        "ķ¿åº¦"
      ],
      [
        "åıįå¤įåĲĪå¹¶",
        "è¯ŃæĸĻä¸ŃæľĢå¸¸è§ģ"
      ],
      [
        "Ġsufficient",
        "ly"
      ],
      [
        "å®ĥä»¬å¸¸çĶ¨äºİæłĩè®°",
        "æ¶Īæģ¯è¾¹çķĮ"
      ],
      [
        "ĠçļĦè¯įè¡¨æĿ¥èĩªè®Ńç»ĥ",
        "è¯ŃæĸĻ"
      ],
      [
        "ĠçļĦæł¸å¿ĥæĢĿæĥ",
        "³æĺ¯ä»Ģä¹Ī"
      ],
      [
        "è¯·çĶ¨ä¸Ģåı¥è¯Ŀä»ĭç»",
        "įä»Ģä¹Īæĺ¯"
      ],
      [
        "æĪĳæŃ£åľ¨åŃ¦ä¹łå¤§è¯Ńè¨Ģæ¨¡åŀĭ",
        "çļĦåĪĨè¯įåĻ¨è®Ńç»ĥ"
      ],
      [
        "ä¸Ģä¸ªçĶ¨äºİæķĻåŃ¦æ¼Ķç¤ºçļĦå°ı",
        "åŀĭ"
      ],
      [
        "æĬĬä¸ĭéĿ¢è¿Ļ",
        "åı¥è¯ĿåĪĩæĪĲæĽ´å®¹æĺĵçĲĨè§"
      ],
      [
        "Ġä¼ļä»İåŁºç¡Ģç¬¦åı·å¼Ģ",
        "å§ĭ"
      ],
      [
        "Ġä¼ļæł¹æį®è¯įè¡¨åĴĮç®",
        "Ĺæ³ķå¾ĹåĪ°ä¸įåĲĮåĪĩåĪĨ"
      ],
      [
        "ĠåĴĮæ¨¡åŀĭçº¦å®ļçļĦæİ",
        "§åĪ¶æłĩè®°"
      ],
      [
        "æľĢåĲİå½¢æĪĲå¸¸çĶ¨åŃĲè¯į",
        "è¯įè¡¨"
      ],
      [
        "åĪĨè¯įåĻ¨è®Ńç»ĥéľĢè¦ģå¹²åĩ",
        "Ģ"
      ],
      [
        "å¸¸è§ģè¡¨è¾¾ä¼ļè¢«",
        "åĪĩå¾Ĺå¾Īç¢İ"
      ],
      [
        "åİĭç¼©çİĩåĴĮåŃ¦ä¹łæķĪçİĩ",
        "éĥ½ä¼ļåıĺå·®"
      ],
      [
        "åıįå¤įåĲĪå¹¶è¯ŃæĸĻä¸ŃæľĢå¸¸è§ģ",
        "çļĦçĽ¸éĤ»çīĩæ®µ"
      ],
      [
        "æĬĬä¸ĭéĿ¢è¿Ļåı¥è¯ĿåĪĩæĪĲæĽ´å®¹æĺĵçĲĨè§",
        "£çļĦå°ıåĿĹ"
      ]
    ]
  }
}