{"<|endoftext|>":0,"<|im_start|>":1,"<|im_end|>":2,"<|object_ref_start|>":3,"<|object_ref_end|>":4,"<|box_start|>":5,"<|box_end|>":6,"<|quad_start|>":7,"<|quad_end|>":8,"<|vision_start|>":9,"<|vision_end|>":10,"<|vision_pad|>":11,"<|image_pad|>":12,"<|video_pad|>":13,"<|audio_start|>":14,"<|audio_end|>":15,"<|audio_pad|>":16,"<tts_pad>":17,"<tts_text_bos>":18,"<tts_text_eod>":19,"<tts_text_bos_single>":20,"<tool_call>":21,"</tool_call>":22,"<tool_response>":23,"</tool_response>":24,"<think>":25,"</think>":26,"<buffer1>":27,"<buffer2>":28,"<buffer3>":29,"<buffer4>":30,"<buffer5>":31,"<buffer6>":32,"<buffer7>":33,"<buffer8>":34,"<buffer9>":35,"!":36,"\"":37,"#":38,"$":39,"%":40,"&":41,"'":42,"(":43,")":44,"*":45,"+":46,",":47,"-":48,".":49,"/":50,"0":51,"1":52,"2":53,"3":54,"4":55,"5":56,"6":57,"7":58,"8":59,"9":60,":":61,";":62,"<":63,"=":64,">":65,"?":66,"@":67,"A":68,"B":69,"C":70,"D":71,"E":72,"F":73,"G":74,"H":75,"I":76,"J":77,"K":78,"L":79,"M":80,"N":81,"O":82,"P":83,"Q":84,"R":85,"S":86,"T":87,"U":88,"V":89,"W":90,"X":91,"Y":92,"Z":93,"[":94,"\\":95,"]":96,"^":97,"_":98,"`":99,"a":100,"b":101,"c":102,"d":103,"e":104,"f":105,"g":106,"h":107,"i":108,"j":109,"k":110,"l":111,"m":112,"n":113,"o":114,"p":115,"q":116,"r":117,"s":118,"t":119,"u":120,"v":121,"w":122,"x":123,"y":124,"z":125,"{":126,"|":127,"}":128,"~":129,"¡":130,"¢":131,"£":132,"¤":133,"¥":134,"¦":135,"§":136,"¨":137,"©":138,"ª":139,"«":140,"¬":141,"®":142,"¯":143,"°":144,"±":145,"²":146,"³":147,"´":148,"µ":149,"¶":150,"·":151,"¸":152,"¹":153,"º":154,"»":155,"¼":156,"½":157,"¾":158,"¿":159,"À":160,"Á":161,"Â":162,"Ã":163,"Ä":164,"Å":165,"Æ":166,"Ç":167,"È":168,"É":169,"Ê":170,"Ë":171,"Ì":172,"Í":173,"Î":174,"Ï":175,"Ð":176,"Ñ":177,"Ò":178,"Ó":179,"Ô":180,"Õ":181,"Ö":182,"×":183,"Ø":184,"Ù":185,"Ú":186,"Û":187,"Ü":188,"Ý":189,"Þ":190,"ß":191,"à":192,"á":193,"â":194,"ã":195,"ä":196,"å":197,"æ":198,"ç":199,"è":200,"é":201,"ê":202,"ë":203,"ì":204,"í":205,"î":206,"ï":207,"ð":208,"ñ":209,"ò":210,"ó":211,"ô":212,"õ":213,"ö":214,"÷":215,"ø":216,"ù":217,"ú":218,"û":219,"ü":220,"ý":221,"þ":222,"ÿ":223,"Ā":224,"ā":225,"Ă":226,"ă":227,"Ą":228,"ą":229,"Ć":230,"ć":231,"Ĉ":232,"ĉ":233,"Ċ":234,"ċ":235,"Č":236,"č":237,"Ď":238,"ď":239,"Đ":240,"đ":241,"Ē":242,"ē":243,"Ĕ":244,"ĕ":245,"Ė":246,"ė":247,"Ę":248,"ę":249,"Ě":250,"ě":251,"Ĝ":252,"ĝ":253,"Ğ":254,"ğ":255,"Ġ":256,"ġ":257,"Ģ":258,"ģ":259,"Ĥ":260,"ĥ":261,"Ħ":262,"ħ":263,"Ĩ":264,"ĩ":265,"Ī":266,"ī":267,"Ĭ":268,"ĭ":269,"Į":270,"į":271,"İ":272,"ı":273,"Ĳ":274,"ĳ":275,"Ĵ":276,"ĵ":277,"Ķ":278,"ķ":279,"ĸ":280,"Ĺ":281,"ĺ":282,"Ļ":283,"ļ":284,"Ľ":285,"ľ":286,"Ŀ":287,"ŀ":288,"Ł":289,"ł":290,"Ń":291,"ãĢ":292,"en":293,"ï¼":294,"è¯":295,"Ġt":296,"ä¸":297,"ãĢĤ":298,"in":299,"ken":300,"oken":301,"åĪ":302,"ï¼Į":303,"er":304,"Ġtoken":305,"çļ":306,"çļĦ":307,"te":308,"æĪ":309,"æĸ":310,"ç»":311,"an":312,"re":313,"ä»":314,"åı":315,"è®":316,"ãĢģ":317,"iz":318,"th":319,"ä¹":320,"æĺ":321,"æł":322,"izer":323,"xt":324,"åŃ":325,"çĶ":326,"Ġs":327,"įå":328,"åĪĨ":329,"æĪĲ":330,"æĸĩ":331,"çĶ¨":332,"¼ļ":333,"ä¼ļ":334,"å®":335,"åĴ":336,"æľ":337,"çĽ":338,"Ġ/":339,"Ńç»":340,"è¯Ń":341,"åĪĩ":342,"Ġtokenizer":343,"è®Ńç»":344,"æĺ¯":345,"åĴĮ":346,"è®Ńç»ĥ":347,"la":348,"åħ":349,"åľ":350,"åŀ":351,"è¦":352,"Ġw":353,"ï¼ļ":354,"ink":355,"think":356,"æłĩ":357,"åŀĭ":358,"BP":359,"``":360,"el":361,"ev":362,"or":363,"yte":364,"¡¨":365,"¡åŀĭ":366,"¨¡åŀĭ":367,"¸¸":368,"½ł":369,"ä½ł":370,"å·":371,"å¸¸":372,"æķ":373,"æ¨¡åŀĭ":374,"è§":375,"è¶":376,"è¡¨":377,"ĠçļĦ":378,"ĢĿ":379,"Ģä¹":380,"è¯į":381,"ä¸Ģ":382,"text":383,"æĸĻ":384,"ä»Ģä¹":385,"åŃ¦":386,"æĸĩæľ":387,"è¯ŃæĸĻ":388,"BPE":389,"ä»Ģä¹Ī":390,"æĸĩæľ¬":391,">ãĢģ":392,"are":393,"ext":394,"ge":395,"im":396,"is":397,"le":398,"ol":399,"tr":400,"¥åħ":401,"¬¦":402,"¹æ":403,"å¤":404,"å¹":405,"å½":406,"å¾":407,"åĲ":408,"æĬ":409,"æĢĿ":410,"ç®":411,"çī":412,"ç¬¦":413,"Ġb":414,"Ġc":415,"Ġm":416,"Ġre":417,"ĨçĽ":418,"Ļ¨":419,"ï¼Ł":420,"è¯·":421,"è¯įå":422,"Ġtext":423,"ä¸ª":424,"ä¸Ń":425,"æĪĳ":426,"and":427,"åı¥":428,"ä¹ł":429,"åĪĨè¯įå":430,"åĪĩåĪĨ":431,"åľ¨":432,"è¦ĨçĽ":433,"Ġwor":434,"å·¥åħ":435,"è¯įè¡¨":436,"ä¸Ģä¸ª":437,"åŃ¦ä¹ł":438,">ãĢģ<":439,"æĬĬ":440,"åĪĨè¯įåĻ¨":441,"è¦ĨçĽĸ":442,"å·¥åħ·":443,"Byte":444,"En":445,"Hel":446,"Lev":447,"Min":448,"ar":449,"as":450,"bol":451,"de":452,"gl":453,"hen":454,"ic":455,"ld":456,"lo":457,"len":458,"mbol":459,"on":460,"qu":461,"rare":462,"sla":463,"tar":464,"yth":465,"ymbol":466,"|>ãĢģ<":467,"¢æĪĲ":468,"£åľ¨":469,"¤º":470,"¥½":471,"¥è":472,"¦Ĥ":473,"§è¯Ń":474,"¨Ģ":475,"®Ĭ":476,"®æłĩ":477,"¯ä»":478,"°ĥ":479,"°ı":480,"±æĸĩ":481,"´å®":482,"¹æĺ":483,"º¦":484,"ºæ":485,"ºİ":486,"»è¯":487,"½ä¼ļ":488,"¾ĭ":489,"¿»è¯":490,"äºİ":491,"ä¾ĭ":492,"åĨ":493,"åĩ":494,"åĮ":495,"å¥½":496,"å¦Ĥ":497,"å°ı":498,"æĽ":499,"æĿ":500,"æŀ":501,"æŃ":502,"çİ":503,"çķ":504,"çŁ":505,"ç¤º":506,"ç¿»è¯":507,"è¾":508,"èĢ":509,"èĭ":510,"è¨Ģ":511,"éĥ":512,"éĹ":513,"Ġ<":514,"Ġe":515,"Ġh":516,"ĠĠ":517,"Ġin":518,"Ġä¼ļ":519,"Ġæĺ¯":520,"ĠåĴĮ":521,"Ġla":522,"Ġev":523,"ĠBPE":524,"Ġand":525,"Ġrare":526,"ĳæĪĲ":527,"Ļ¯":528,"ent":529,"è¯Ŀ":530,"Ġtr":531,"ä¸º":532,"ing":533,"okenizer":534,"Ġtokens":535,"çļĦå°ı":536,"ted":537,"ansla":538,"res":539,"åı·":540,"åı¯ä»":541,"è®°":542,"åŃĹ":543,"Ġstr":544,"Ġsymbol":545,"įåĲ":546,"çĶ¨äºİ":547,"å®ļ":548,"æľĢ":549,"çĽ®æłĩ":550,"åĪĩæĪĲ":551,"åľºæ":552,"è¦ģ":553,"æłĩè®°":554,"```":555,"ä½łå¥½":556,"å¸¸è§":557,"æķ°":558,"è¶³":559,"è¶Ĭ":560,"ä»Ģä¹Īæĺ¯":561,"ish":562,"¹æ®Ĭ":563,"å¤§è¯Ń":564,"å¹¶":565,"å½¢æĪĲ":566,"å¾Ĺ":567,"åĲİ":568,"æĢĿèĢ":569,"ç®Ģ":570,"çī¹æ®Ĭ":571,"ç¬¦åı·":572,"Ġbyte":573,"Ġcan":574,"åı¥è¯Ŀ":575,"Ġworld":576,"åĪĨè¯įåĻ¨è®Ńç»ĥ":577,"ByteLev":578,"Engl":579,"Hello":580,"tart":581,"ython":582,"°ĥçĶ¨":583,"´å®¹æĺ":584,"æĽ´å®¹æĺ":585,"æŃ£åľ¨":586,"çİĩ":587,"çķĮ":588,"çŁŃ":589,"ç¿»è¯ĳæĪĲ":590,"èĭ±æĸĩ":591,"è¨Ģæ¨¡åŀĭ":592,"éĥ½ä¼ļ":593,"éĹ´":594,"Ġint":595,"Ġlar":596,"çĽ®æłĩåľºæ":597,"å¸¸è§ģ":598,"å¤§è¯Ńè¨Ģæ¨¡åŀĭ":599,"æĢĿèĢĥ":600,"ByteLevel":601,"English":602,"æĽ´å®¹æĺĵ":603,"çĽ®æłĩåľºæĻ¯":604,"\":":605,"\"}":606,"->":607,"00":608,"12":609,"400":610,"</":611,">ï¼Į":612,"AI":613,"Fre":614,"Ple":615,"Python":616,"To":617,"Tokenizer":618,"Un":619,"at":620,"ain":621,"age":622,"di":623,"ed":624,"ff":625,"fr":626,"gu":627,"ger":628,"gth":629,"hy":630,"id":631,"ik":632,"ix":633,"iMin":634,"ient":635,"ires":636,"ji":637,"ly":638,"lan":639,"lik":640,"mo":641,"ns":642,"om":643,"ode":644,"pla":645,"pres":646,"python":647,"pat":648,"rn":649,"se":650,"start":651,"tu":652,"ter":653,"tokenizer":654,"uff":655,"ver":656,"xpla":657,"{\"":658,"¡º":659,"¡Ģ":660,"¡åŃĹ":661,"¢«":662,"¢è":663,"¢İ":664,"¢ĳ":665,"¢çļĦ":666,"£çļĦå°ı":667,"¤įåĲ":668,"¥è§":669,"¥åĪĩæĪĲ":670,"§ĭ":671,"§åĪ":672,"¨³":673,"©æ":674,"©çİĩ":675,"ªè®Ńç»ĥ":676,"«ĺ":677,"«ä¸Ń":678,"¬æ":679,"¬å¸¸":680,"®µ":681,"®è¯įè¡¨":682,"¯Ł":683,"¯è¾":684,"°ä¸":685,"±å":686,"²é":687,"²åĩ":688,"³ķ":689,"³æĺ¯":690,"¶Ī":691,"¶æłĩè®°":692,"¸å":693,"¸é":694,"¹çļĦ":695,"¹çķĮ":696,"ºç":697,"ºéĹ´":698,"»çī":699,"¼Ģ":700,"¼Ķ":701,"¼©çİĩ":702,"½æķ°":703,"½¬æ":704,"¾ä¼ļ":705,"¿å":706,"¿ĥ":707,"¿Ļ":708,"ÎĶ":709,"ÏĢ":710,"âĢ":711,"âĢĿ":712,"åĬ":713,"åİ":714,"åĽ":715,"åĿ":716,"åŁ":717,"å§ĭ":718,"å¯Ł":719,"å¼Ģ":720,"æģ":721,"æĥ":722,"æİ":723,"æ®µ":724,"æ³ķ":725,"æ¶Ī":726,"æ¼Ķ":727,"çĤ":728,"çĲ":729,"çľ":730,"çŃ":731,"çº¦":732,"ç¢İ":733,"ç¨³":734,"ç¼©çİĩ":735,"è°ĥçĶ¨":736,"è¢«":737,"è½¬æ":738,"éĩ":739,"éľ":740,"éĿ":741,"é¡º":742,"é¢ĳ":743,"é«ĺ":744,"ĊĠĠ":745,"Ġ6":746,"Ġa":747,"Ġä¹":748,"Ġè®Ńç»ĥ":749,"Ġor":750,"Ġare":751,"Ġis":752,"Ġä¸Ń":753,"ĠåŃ¦ä¹ł":754,"ĠåĪĨè¯įåĻ¨":755,"Ġå·¥åħ·":756,"Ġlen":757,"Ġåĩ":758,"ĠæŃ£åľ¨":759,"Ġéĥ½ä¼ļ":760,"Ġå¤§è¯Ńè¨Ģæ¨¡åŀĭ":761,"ĠByteLevel":762,"ĠEnglish":763,"Ġ->":764,"ĠAI":765,"ĠFre":766,"ĠPython":767,"ĠTo":768,"ĠUn":769,"Ġdi":770,"Ġfr":771,"Ġid":772,"Ġlik":773,"Ġpat":774,"ĠÎĶ":775,"ĠÏĢ":776,"ĠåĬ":777,"Ģè¦ģ":778,"ģç®Ģ":779,"Ĥ»çī":780,"Ĥå¯Ł":781,"ĥä»":782,"ħåĪĨ":783,"ħåĲ":784,"Ĩè§":785,"ĩªè®Ńç»ĥ":786,"ĩæ®µ":787,"Īå¹¶":788,"Īç®Ģ":789,"Īçİĩ":790,"Īç¢İ":791,"īĭ":792,"ĭç»":793,"ĭéĹ´":794,"ĭç¼©çİĩ":795,"ĭéĿ":796,"ĮåĪĩåĪĨ":797,"įåĪĩåĪĨ":798,"įè¶³":799,"įä»Ģä¹Īæĺ¯":800,"į¢çļĦ":801,"į®è¯įè¡¨":802,"İåŁ":803,"ıçļĦ":804,"Ĳè¯į":805,"ĵįåĪĩåĪĨ":806,"ķ¿å":807,"ĸå·¥åħ·":808,"ĸçķĮ":809,"Ĺæ³ķ":810,"ĺå·":811,"ĻåŃ¦":812,"ĻæĪĳ":813,"Ļä¸Ģä¸ª":814,"ļæł":815,"Ľŀ":816,"ľè¯ŃæĸĻ":817,"Łè®":818,"Łå®":819,"łä¸º":820,"Ńæ¨¡åŀĭ":821,"end":822,"ented":823,"ï¼Ľ":824,"Ġthen":825,"ä¸²é":826,"ä¸ĭéĿ":827,"ä¸įè¶³":828,"ä¸ĸçķĮ":829,"ind":830,"inim":831,"åĪ°ä¸":832,"ery":833,"erge":834,"çļĦçĽ":835,"çļĦåĪĨè¯įåĻ¨è®Ńç»ĥ":836,"çļĦæİ":837,"æĪĸå·¥åħ·":838,"ç»ĻæĪĳ":839,"ç»Łè®":840,"ç»Ńæ¨¡åŀĭ":841,"ä»ĭç»":842,"ä»İåŁ":843,"åıįå":844,"åıĺå·":845,"æł¹æ":846,"æł¸å":847,"åŃĲè¯į":848,"Ġso":849,"Ġstart":850,"Ġsuff":851,"įåĽŀ":852,"çĶ¨ä¸Ģ":853,"çĶ¨æĿ":854,"çĶ¨åŃĲè¯į":855,"ä¼ļæĽ´å®¹æĺĵ":856,"å®ĥä»":857,"åĪĩå¾Ĺ":858,"åĴĮæłĩ":859,"åĴĮç®":860,"åĴĮåŃ¦ä¹ł":861,"è®Ńç»ĥè¶Ĭ":862,"åħħåĪĨ":863,"åħĪç®Ģ":864,"Ġwhen":865,"Ġwhy":866,"ä½łæĺ¯":867,"ä½łåı¯ä»":868,"å¸¸çĶ¨åŃĲè¯į":869,"æķĪçİĩ":870,"æķĻåŃ¦":871,"æ¨¡åŀĭçº¦":872,"è¡¨è¾":873,"ĠçļĦè¯ŃæĸĻ":874,"ĠçļĦè¯įè¡¨":875,"ĠçļĦæł¸å":876,"è¯ŃæĸĻä¸Ń":877,"ä»Ģä¹Īè®Ńç»ĥ":878,"æĸĩæľ¬åĴĮ":879,"æĸĩæľ¬åĪĩåĪĨ":880,"æĸĩæľ¬ä¼ļæĽ´å®¹æĺĵ":881,"lean":882,"ols":883,"transla":884,"å¤ļæł":885,"å¹²åĩ":886,"å½±å":887,"å¾Īç¢İ":888,"æĢĿæĥ":889,"ç¬¦ä¸²é":890,"Ġbe":891,"Ġclean":892,"Ġmix":893,"Ġminim":894,"Ġmerge":895,"Ġrequ":896,"Ġrepres":897,"Ġretu":898,"è¯·åĨ":899,"è¯·çĶ¨ä¸Ģ":900,"è¯·åħĪç®Ģ":901,"æĪĳæŃ£åľ¨":902,"andle":903,"åľ¨æĸĩæľ¬åĴĮ":904,"Ġword":905,"ä¸Ģä¸ªåĮ":906,"ä¸Ģä¸ªçĶ¨äºİ":907,"åŃ¦ä¹łå¤§è¯Ńè¨Ģæ¨¡åŀĭ":908,">ãĢģ</":909,"æĬĬä¸ĭéĿ":910,"æĬĬæĸĩæľ¬åĪĩåĪĨ":911,"è¦ĨçĽĸè¶Ĭ":912,"è¦ĨçĽĸçĽ®æłĩåľºæĻ¯":913,"è¦ĨçĽĸä¸įè¶³":914,"MiniMin":915,"ase":916,"def":917,"icient":918,"icode":919,"length":920,"quent":921,"|>ãĢģ<|":922,"¥è°ĥçĶ¨":923,"¥èĩªè®Ńç»ĥ":924,"ä¾ĭå¦Ĥ":925,"åĨįåĽŀ":926,"åĮºéĹ´":927,"å¦Ĥæŀ":928,"æĿ¥èĩªè®Ńç»ĥ":929,"æŀģç®Ģ":930,"ç¤ºä¾ĭ":931,"ç¤ºçļĦå°ı":932,"Ġ<|":933,"Ġemo":934,"Ġexpla":935,"Ġhas":936,"Ġhandle":937,"Ġä¼ļä»İåŁ":938,"Ġä¼ļæł¹æ":939,"Ġæĺ¯æĬĬæĸĩæľ¬åĪĩåĪĨ":940,"ĠåĴĮç¬¦åı·":941,"ĠåĴĮæ¨¡åŀĭçº¦":942,"Ġeven":943,"Ġevery":944,"Ġtransla":945,"Ġtrain":946,"ä¸ºä»Ģä¹Īè®Ńç»ĥ":947,"åı¯ä»¥åĪĩæĪĲ":948,"åŃĹåĴĮæłĩ":949,"Ġstring":950,"Ġsymbols":951,"įåĲĮåĪĩåĪĨ":952,"çĶ¨äºİæłĩè®°":953,"å®ļçļĦæİ":954,"æľĢåĲİ":955,"æľĢå¸¸è§ģ":956,"åĪĩæĪĲæĽ´å®¹æĺĵ":957,"è¦ģè¦ĨçĽĸçĽ®æłĩåľºæĻ¯":958,"ä½łå¥½ä¸ĸçķĮ":959,"æķ°åŃĹåĴĮæłĩ":960,"è¶³éĩ":961,"ä»Ģä¹Īæĺ¯çī¹æ®Ĭ":962,"å¹¶åľ¨æĸĩæľ¬åĴĮ":963,"å½¢æĪĲç¨³":964,"å½¢æĪĲå¸¸çĶ¨åŃĲè¯į":965,"å¾ĹåĪ°ä¸":966,"åĲİç»Ńæ¨¡åŀĭ":967,"ç¬¦åı·å¼Ģ":968,"Ġbytes":969,"åı¥è¯Ŀä»ĭç»":970,"åı¥è¯ĿåĪĩæĪĲæĽ´å®¹æĺĵ":971,"åĪĨè¯įåĻ¨è®Ńç»ĥéľ":972,"çŁŃåı¥":973,"çŁŃæĢĿèĢĥ":974,"ç¿»è¯ĳæĪĲèĭ±æĸĩ":975,"éĥ½ä¼ļåıĺå·":976,"Ġinto":977,"Ġlarge":978,"Ġlarger":979,"å¸¸è§ģè¡¨è¾":980,"æĢĿèĢĥåĮºéĹ´":981,"çĽ®æłĩåľºæĻ¯è¦ĨçĽĸè¶Ĭ":982,"\":\"":983,"123":984,"Please":985,"guage":986,"language":987,"terns":988,"verse":989,"¡Ģç¬¦åı·å¼Ģ":990,"¡åŃĹç¬¦ä¸²é":991,"¢è¿Ļ":992,"£çļĦå°ıåĿ":993,"¤įåĲĪå¹¶":994,"¥è§Ĥå¯Ł":995,"§åĪ¶æłĩè®°":996,"©æīĭ":997,"«ä¸Ńèĭ±æĸĩ":998,"¬å¸¸çĶ¨äºİæłĩè®°":999,"¯è¾¹çķĮ":1000,"³æĺ¯ä»Ģä¹Ī":1001,"¸éĤ»çī":1002,"¹çļĦçŁŃåı¥":1003,"ºç¡Ģç¬¦åı·å¼Ģ":1004,"¾ä¼ļè¢«":1005,"¿ĥæĢĿæĥ":1006,"âĢľ":1007,"åİĭç¼©çİĩ":1008,"åĽłä¸º":1009,"æģ¯è¾¹çķĮ":1010,"æ¶Īæģ¯è¾¹çķĮ":1011,"æ¼Ķç¤ºçļĦå°ı":1012,"çĤ¹çļĦçŁŃåı¥":1013,"çĲĨè§":1014,"çľŁå®":1015,"çŃĶ":1016,"è½¬æį¢çļĦ":1017,"é¢ĳæĸĩæľ¬ä¼ļæĽ´å®¹æĺĵ":1018,"é«ĺé¢ĳæĸĩæľ¬ä¼ļæĽ´å®¹æĺĵ":1019,"ĊĠĠĠ":1020,"Ġä¹ĭéĹ´":1021,"Ġä¸Ńæĸĩ":1022,"Ġåĩ½æķ°":1023,"Ġéĥ½ä¼ļå½±å":1024,"ĠFrequent":1025,"ĠTools":1026,"ĠUnicode":1027,"Ġdiverse":1028,"Ġfrom":1029,"Ġlike":1030,"Ġpatterns":1031,"ĠåĬ©æīĭ":1032,"Ģè¦ģå¹²åĩ":1033,"ħåĲ«ä¸Ńèĭ±æĸĩ":1034,"į®è¯įè¡¨åĴĮç®":1035,"ıçļĦæĸĩæľ¬":1036,"ķ¿åº¦":1037,"Ĺæ³ķå¾ĹåĪ°ä¸":1038,"Ļä¸Ģä¸ªæŀģç®Ģ":1039,"ľè¯ŃæĸĻè¦ĨçĽĸä¸įè¶³":1040,"çļĦçĽ¸éĤ»çī":1041,"æĪĸå·¥åħ·è°ĥçĶ¨":1042,"ç»ĻæĪĳä¸Ģä¸ªåĮ":1043,"ç»Łè®¡åŃĹç¬¦ä¸²é":1044,"åıįå¤įåĲĪå¹¶":1045,"Ġstarts":1046,"Ġsufficient":1047,"çĶ¨æĿ¥è§Ĥå¯Ł":1048,"å®ĥä»¬å¸¸çĶ¨äºİæłĩè®°":1049,"åĪĩå¾Ĺå¾Īç¢İ":1050,"åĴĮåŃ¦ä¹łæķĪçİĩ":1051,"è®Ńç»ĥè¶Ĭé¡º":1052,"ä½łåı¯ä»¥è°ĥçĶ¨":1053,"æķĻåŃ¦æ¼Ķç¤ºçļĦå°ı":1054,"ĠçļĦè¯ŃæĸĻè¦ģè¦ĨçĽĸçĽ®æłĩåľºæĻ¯":1055,"ĠçļĦè¯įè¡¨æĿ¥èĩªè®Ńç»ĥ":1056,"ĠçļĦæł¸å¿ĥæĢĿæĥ":1057,"è¯ŃæĸĻä¸ŃæľĢå¸¸è§ģ":1058,"translated":1059,"å¤ļæł·":1060,"Ġmixed":1061,"Ġminimind":1062,"Ġmerged":1063,"Ġrequires":1064,"Ġrepresented":1065,"Ġreturn":1066,"è¯·åĨĻä¸Ģä¸ªæŀģç®Ģ":1067,"è¯·çĶ¨ä¸Ģåı¥è¯Ŀä»ĭç»":1068,"è¯·åħĪç®ĢçŁŃæĢĿèĢĥ":1069,"æĪĳæŃ£åľ¨åŃ¦ä¹łå¤§è¯Ńè¨Ģæ¨¡åŀĭ":1070,"ä¸Ģä¸ªçĶ¨äºİæķĻåŃ¦æ¼Ķç¤ºçļĦå°ı":1071,"æĬĬä¸ĭéĿ¢è¿Ļ":1072,"MiniMind":1073,"åĨįåĽŀçŃĶ":1074,"å¦Ĥæŀľè¯ŃæĸĻè¦ĨçĽĸä¸įè¶³":1075,"Ġemoji":1076,"Ġexplain":1077,"Ġä¼ļä»İåŁºç¡Ģç¬¦åı·å¼Ģ":1078,"Ġä¼ļæł¹æį®è¯įè¡¨åĴĮç®":1079,"Ġæĺ¯æĬĬæĸĩæľ¬åĪĩåĪĨæĪĲ":1080,"ĠåĴĮæ¨¡åŀĭçº¦å®ļçļĦæİ":1081,"Ġtranslate":1082,"Ġtraining":1083,"æľĢåĲİå½¢æĪĲå¸¸çĶ¨åŃĲè¯į":1084,"æķ°åŃĹåĴĮæłĩçĤ¹çļĦçŁŃåı¥":1085,"è¶³éĩıçļĦæĸĩæľ¬":1086,"å½¢æĪĲç¨³å®ļ":1087,"åĲİç»Ńæ¨¡åŀĭè®Ńç»ĥè¶Ĭé¡º":1088,"åı¥è¯ĿåĪĩæĪĲæĽ´å®¹æĺĵçĲĨè§":1089,"åĪĨè¯įåĻ¨è®Ńç»ĥéľĢè¦ģå¹²åĩ":1090,"éĥ½ä¼ļåıĺå·®":1091,"å¸¸è§ģè¡¨è¾¾ä¼ļè¢«":1092,"æĢĿèĢĥåĮºéĹ´æĪĸå·¥åħ·è°ĥçĶ¨":1093,"çĽ®æłĩåľºæĻ¯è¦ĨçĽĸè¶ĬåħħåĪĨ":1094,"£çļĦå°ıåĿĹ":1095,"åİĭç¼©çİĩåĴĮåŃ¦ä¹łæķĪçİĩ":1096,"çľŁå®ŀ":1097,"è½¬æį¢çļĦå·¥åħ·":1098,"é«ĺé¢ĳæĸĩæľ¬ä¼ļæĽ´å®¹æĺĵå½¢æĪĲç¨³å®ļ":1099,"Ġä¹ĭéĹ´è½¬æį¢çļĦå·¥åħ·":1100,"Ġéĥ½ä¼ļå½±åĵįåĪĩåĪĨ":1101,"Ĺæ³ķå¾ĹåĪ°ä¸įåĲĮåĪĩåĪĨ":1102,"çļĦçĽ¸éĤ»çīĩæ®µ":1103,"ç»ĻæĪĳä¸Ģä¸ªåĮħåĲ«ä¸Ńèĭ±æĸĩ":1104,"ç»Łè®¡åŃĹç¬¦ä¸²éķ¿åº¦":1105,"åıįå¤įåĲĪå¹¶è¯ŃæĸĻä¸ŃæľĢå¸¸è§ģ":1106,"Ġsufficiently":1107,"å®ĥä»¬å¸¸çĶ¨äºİæłĩè®°æ¶Īæģ¯è¾¹çķĮ":1108,"ĠçļĦè¯įè¡¨æĿ¥èĩªè®Ńç»ĥè¯ŃæĸĻ":1109,"ĠçļĦæł¸å¿ĥæĢĿæĥ³æĺ¯ä»Ģä¹Ī":1110,"è¯·çĶ¨ä¸Ģåı¥è¯Ŀä»ĭç»įä»Ģä¹Īæĺ¯":1111,"æĪĳæŃ£åľ¨åŃ¦ä¹łå¤§è¯Ńè¨Ģæ¨¡åŀĭçļĦåĪĨè¯įåĻ¨è®Ńç»ĥ":1112,"ä¸Ģä¸ªçĶ¨äºİæķĻåŃ¦æ¼Ķç¤ºçļĦå°ıåŀĭ":1113,"æĬĬä¸ĭéĿ¢è¿Ļåı¥è¯ĿåĪĩæĪĲæĽ´å®¹æĺĵçĲĨè§":1114,"Ġä¼ļä»İåŁºç¡Ģç¬¦åı·å¼Ģå§ĭ":1115,"Ġä¼ļæł¹æį®è¯įè¡¨åĴĮç®Ĺæ³ķå¾ĹåĪ°ä¸įåĲĮåĪĩåĪĨ":1116,"ĠåĴĮæ¨¡åŀĭçº¦å®ļçļĦæİ§åĪ¶æłĩè®°":1117,"æľĢåĲİå½¢æĪĲå¸¸çĶ¨åŃĲè¯įè¯įè¡¨":1118,"åĪĨè¯įåĻ¨è®Ńç»ĥéľĢè¦ģå¹²åĩĢ":1119,"å¸¸è§ģè¡¨è¾¾ä¼ļè¢«åĪĩå¾Ĺå¾Īç¢İ":1120,"åİĭç¼©çİĩåĴĮåŃ¦ä¹łæķĪçİĩéĥ½ä¼ļåıĺå·®":1121,"åıįå¤įåĲĪå¹¶è¯ŃæĸĻä¸ŃæľĢå¸¸è§ģçļĦçĽ¸éĤ»çīĩæ®µ":1122,"æĬĬä¸ĭéĿ¢è¿Ļåı¥è¯ĿåĪĩæĪĲæĽ´å®¹æĺĵçĲĨè§£çļĦå°ıåĿĹ":1123}